[PAD]
[UNK]
[CLS]
[MASK]
[SEP]
!
"
#
$
%
&
'
(
)
*
+
,
-
.
/
0
1
2
3
4
5
6
7
8
9
:
;
<
=
>
?
@
[
\
]
^
_
`
a
b
c
d
e
f
g
h
i
j
k
l
m
n
o
p
q
r
s
t
u
v
w
x
y
z
{
}
~
¡
§
¨
©
ª
«
°
±
²
³
·
¹
º
»
½
¿
×
ß
æ
ð
ø
þ
đ
ı
ł
ŋ
œ
ǀ
ǁ
ǌ
ɐ
ɑ
ɔ
ɕ
ɖ
ə
ɛ
ɦ
ɪ
ɫ
ɲ
ɳ
ɵ
ɾ
ʀ
ʁ
ʂ
ʃ
ʊ
ʋ
ʌ
ʐ
ʒ
ʤ
ʨ
ʰ
ʲ
ʼ
ʾ
ʿ
ˈ
ˌ
ː
ͳ
α
β
γ
δ
ε
ζ
η
θ
ι
κ
λ
μ
ν
ξ
ο
π
ρ
ς
σ
τ
υ
φ
χ
ψ
ω
ϭ
ϰ
ϱ
а
б
в
г
д
е
ж
з
и
к
л
м
н
о
п
р
с
т
у
ф
х
ц
ч
ш
щ
ъ
ы
ь
э
ю
я
ђ
є
і
ј
ћ
ҳ
ҷ
ӕ
ө
ա
զ
ի
կ
հ
ղ
յ
ն
շ
ո
ս
վ
տ
ր
ւ
א
ב
ג
ד
ה
ו
ז
ח
ט
י
ך
כ
ל
ם
מ
ן
נ
ס
ע
ף
פ
צ
ק
ר
ש
ת
״
ء
ا
ب
ة
ت
ث
ج
ح
خ
د
ذ
ر
ز
س
ش
ص
ض
ط
ظ
ع
غ
ـ
ف
ق
ك
ل
م
ن
ه
و
ى
ي
ٹ
پ
چ
ڌ
ښ
ک
گ
ھ
ہ
ۇ
ی
ە
अ
इ
ई
क
ख
ग
ङ
च
ज
ट
ठ
त
थ
द
ध
न
प
ब
भ
म
य
र
ल
व
श
ष
स
ह
ा
ि
ी
ो
॰
ং
অ
ই
উ
ও
ক
খ
গ
ঙ
চ
জ
ঠ
ণ
ত
থ
দ
ধ
ন
প
ব
ম
য
র
ল
শ
স
হ
া
ি
ী
ে
ਜ
ਪ
ਬ
ਾ
ੀ
ક
ગ
જ
ત
ફ
બ
ર
લ
સ
ા
ી
ଆ
ଓ
ଡ
ட
த
ந
ம
ழ
ா
ி
ு
ం
ఆ
క
గ
జ
డ
ణ
త
ద
ధ
ప
బ
మ
ర
ల
శ
ష
ు
ూ
ృ
ಕ
ಡ
ನ
ം
മ
യ
ല
ള
ാ
ං
ල
ස
හ
ก
ง
ช
ซ
ณ
ด
ต
ท
ธ
น
พ
ภ
ม
ย
ร
ล
ว
ศ
ษ
ส
อ
ฯ
ะ
า
เ
ไ
ພ
ລ
ວ
ສ
າ
་
ཁ
ག
ང
ཇ
ད
བ
མ
ར
ས
ა
ბ
დ
ე
ვ
თ
ი
კ
ლ
მ
ნ
ო
რ
ს
ტ
უ
ქ
ღ
შ
ც
ძ
ხ
ჯ
ᄀ
ᄂ
ᄃ
ᄆ
ᄇ
ᄉ
ᄋ
ᄌ
ᄎ
ᄏ
ᄐ
ᄑ
ᄒ
ᅡ
ᅢ
ᅣ
ᅥ
ᅦ
ᅧ
ᅨ
ᅩ
ᅪ
ᅭ
ᅮ
ᅲ
ᅳ
ᅴ
ᅵ
ᆨ
ᆫ
ᆯ
ᆷ
ᆼ
ል
ሚ
ማ
ር
ሮ
ሳ
ስ
ቅ
ኛ
አ
ኢ
ኣ
ኦ
ወ
ያ
ይ
ዮ
ደ
ጊ
ግ
ፈ
ᐃ
ᐊ
ᐎ
ᑎ
ᑐ
ᑦ
ᒃ
ᒧ
ᓄ
ᓐ
ᔨ
ᔫ
ក
ង
ញ
ន
ព
ភ
រ
េ
‑
–
—
‘
‚
‛
„
†
‡
•
…
′
″
‹
›
⁄
€
←
↑
→
−
∫
≈
≤
≥
⋅
②
─
└
▪
►
✔
ⲁ
ⲉ
ⲕ
ⲟ
ⲣ
ⲧ
〈
っ
ん
ア
イ
ウ
ク
ケ
シ
ス
チ
テ
ト
ニ
ハ
フ
ヘ
マ
ム
メ
モ
ヤ
ュ
ョ
リ
ル
レ
ン
・
ー
一
三
上
世
丘
东
中
之
九
也
习
云
五
亞
京
人
仁
介
他
仙
佳
來
俊
倍
儒
元
先
光
全
兰
共
其
内
凱
刘
刚
创
删
別
劉
北
区
區
华
南
博
原
口
古
台
合
吉
名
吳
周
和
哈
哲
唐
商
四
回
国
國
園
在
地
圳
域
基
壤
壮
壯
夏
夢
大
天
太
夫
奇
始
姚
子
学
孫
學
宁
安
宋
宝
家
寧
寶
小
少
尔
尹
屋
山
岡
岳
島
崎
川
州
市
帝
平
广
広
庆
康
廣
廷
建
弘
张
弼
彦
征
徐
徳
德
徹
徽
志
念
恋
恩
惠
愚
愛
慶
成
戸
打
振
文
斗
新
方
族
日
早
昆
昊
昌
明
春
昭
显
晋
晶
曆
曌
月
木
本
朱
朴
李
村
杜
来
杭
東
林
校
桃
梅
森
植
楚
槿
樹
橋
歌
正
武
毅
毛
民
水
汉
江
沈
沙
河
治
泉
泰
泳
泽
津
洪
济
浙
海
涛
深
淸
清
温
港
湖
準
溫
滉
滨
漢
漫
潘
澤
澳
濟
濤
濱
瀋
煥
熙
燁
爾
牛
特
玄
王
现
珍
珠
現
琛
琰
琵
琶
璠
甘
生
田
由
画
皇
盧
直
盾
睦
矛
石
神
福
禛
秀
秦
稷
笑
紀
純
紫
縣
羅
習
翔
耀
老
肃
肥
胡
胤
臨
自
致
臺
良
花
苏
苦
茂
菅
華
葬
蒋
蒙
蓋
蔣
藤
藩
蘇
虎
虞
蝶
裕
西
覇
覺
語
謙
貴
賽
贵
赵
趙
載
轄
辽
近
道
邓
那
邦
郎
郑
郡
部
郭
都
鄧
鄭
鄱
重
野
金
釜
鉉
鋒
錦
鎔
鑄
钱
锋
锦
镕
長
长
門
関
门
阪
阮
阳
陈
陕
陳
陵
陽
隆
雄
雨
青
韓
顯
香
高
鳩
鹏
麻
黄
黎
黑
鼠
龄
龍
龙
ꭹ
ꮃ
ꮳ
ﷲ
，
：
😀
😂
🙂
##o
##l
##a
##s
##u
##y
##i
##n
##d
##m
##e
##r
##g
##c
##h
##k
##p
##w
##t
##q
##v
##j
##8
##2
##ф
##а
##z
##ʼ
##4
##f
##×
##ي
##ص
##ل
##9
##3
##5
##°
##ع
##و
##о
##к
##в
##и
##ћ
##т
##л
##н
##b
##ɵ
##6
##7
##ω
##μ
##α
##ς
##0
##1
##υ
##κ
##η
##x
##ई
##ŋ
##ᅵ
##ᆷ
##ᄃ
##ᅢ
##ᄌ
##ᅮ
##ᆼ
##х
##і
##ං
##හ
##ල
##ا
##ء
##ł
##е
##д
##р
##λ
##σ
##τ
##ι
##ο
##ᅡ
##ᆫ
##ᄋ
##ᅣ
##ᄒ
##ᆨ
##ᄀ
##ᅭ
##ب
##ᔨ
##ᔫ
##у
##м
##б
##ː
##æ
##ه
##ы
##ν
##º
##ʋ
##з
##ь
##с
##ﷲ
##ర
##ద
##శ
##ۇ
##غ
##ر
##چ
##ە
##ट
##ल
##ч
##ق
##س
##م
##ش
##ط
##ن
##ј
##ᅲ
##ᄎ
##ᅩ
##د
##ɐ
##ˈ
##ʲ
##ɪ
##ɕ
##ж
##ニ
##メ
##ו
##ר
##י
##ן
##±
##ρ
##δ
##φ
##π
##ө
##г
##θ
##ə
##ɑ
##ང
##ш
##ح
##ᅳ
##ᅨ
##ة
##ε
##ে
##খ
##ա
##յ
##ս
##տ
##ն
##ξ
##ృ
##ష
##ణ
##మ
##ూ
##త
##ס
##ף
##ɛ
##স
##ক
##া
##ন
##দ
##র
##ц
##ɔ
##ʤ
##ง
##ล
##ก
##ษ
##ณ
##ز
##զ
##վ
##ո
##ւ
##ր
##न
##द
##ि
##र
##ा
##ʃ
##ད
##ث
##ம
##ி
##ழ
##ت
##ʌ
##³
##ী
##জ
##ე
##ლ
##ა
##ვ
##ი
##ש
##ע
##ხ
##თ
##ʂ
##א
##ה
##¹
##ҷ
##ל
##ى
##ß
##ض
##œ
##γ
##ف
##ʰ
##ك
##−
##ı
##п
##מ
##ध
##ी
##ם
##ک
##ج
##─
##χ
##ग
##म
##थ
##ᒧ
##ᐎ
##ᓐ
##ᅥ
##ア
##ム
##ی
##ψ
##ศ
##ส
##ว
##ด
##ª
##ᄆ
##ᅧ
##ᄇ
##ო
##ת
##ζ
##²
##ʾ
##લ
##સ
##ા
##ર
##ذ
##ـ
##ช
##า
##ะ
##ც
##щ
##ю
##ʨ
##რ
##დ
##ნ
##ძ
##ɾ
##ბ
##ს
##ร
##เ
##ท
##พ
##€
##β
##ᆯ
##ᄉ
##श
##ख
##ղ
##ի
##կ
##ি
##ব
##থ
##व
##ா
##ட
##ு
##ט
##ম
##য
##ซ
##я
##צ
##ח
##ק
##ʊ
##त
##भ
##ב
##ष
##ो
##బ
##ల
##ø
##⁄
##ɦ
##レ
##イ
##ス
##テ
##ー
##シ
##ョ
##ン
##נ
##ɳ
##ፈ
##ወ
##ር
##ቅ
##ไ
##ย
##ד
##¨
##є
##स
##क
##হ
##ह
##ม
##ଡ
##ଆ
##ሳ
##ይ
##ያ
##ስ
##ɫ
##শ
##চ
##ঙ
##গ
##ⲁ
##ⲕ
##ⲟ
##ⲧ
##ⲉ
##ꮃ
##ꭹ
##ণ
##ᅴ
##უ
##ღ
##შ
##פ
##ז
##ϭ
##ტ
##კ
##მ
##ሮ
##ሚ
##ኛ
##ʁ
##ब
##ภ
##ธ
##च
##チ
##ュ
##ማ
##ɲ
##ヤ
##ך
##ð
##ᄑ
##প
##ধ
##ظ
##ङ
##າ
##ສ
##ລ
##ວ
##ھ
##ٹ
##خ
##ˌ
##ు
##గ
##ъ
##ʒ
##ҳ
##ᄐ
##ქ
##マ
##प
##य
##ક
##డ
##ہ
##đ
##ል
##ደ
##ᅪ
##ല
##യ
##ാ
##ള
##ം
##ル
##ヘ
##ト
##հ
##ठ
##ল
##ত
##ǌ
##ᅦ
##ం
##ధ
##উ
##ং
##ನ
##ಡ
##ڌ
##½
##ښ
##ᓄ
##ᒃ
##ᑎ
##ᑐ
##ᑦ
##э
##モ
##リ
##ज
##น
##ต
##જ
##ત
##ી
##រ
##ង
##ភ
##ន
##ព
##េ
##ញ
##ਜ
##ਾ
##ਬ
##ੀ
##ハ
##ዮ
##ጊ
##ג
##an
##qa
##un
##ta
##ch
##ay
##in
##la
##una
##pi
##pa
##is
##kuna
##uy
##mi
ka
##ma
lla
##ti
##cha
##ll
ch
##ku
##ya
##lla
##ri
##man
##qta
##uq
##isqa
llaqta
wa
##uk
##ik
##ra
##wa
##us
##ru
ma
##qan
##ka
pa
an
si
nisqa
##ana
##ki
##paq
##uyu
kay
runa
ha
##manta
huk
##sqa
simi
##nin
##wan
##ina
##on
##iq
##ha
suyu
nisqaqa
##ruw
##ill
ya
##tu
su
##iy
##pas
chay
mama
in
##puy
##rqan
ki
ri
##ul
wata
qu
##kun
##ins
##chu
llam
##yuq
kas
sa
llaqtapi
llamk
pi
##si
##ur
anqa
ay
pruw
pruwins
pruwinsya
##chay
niq
##kunata
qill
##es
##en
qillqa
##taq
mana
niqin
##llapi
##tin
##ar
##er
simipi
kan
##qu
##os
##uri
co
##ayuq
##hi
as
##li
suti
##ura
##ist
killapi
uma
qha
watapi
##tan
wan
##as
kasti
##may
##chis
hawa
ta
19
un
##kuy
##istri
distri
na
##tun
##mon
##ray
com
qa
##chi
may
##usqa
##chasqa
apuy
##sa
all
sutiyuq
de
common
pacha
commons
kastilla
rik
is
##tig
##uriya
##chik
##iya
katig
distritu
katiguriya
##yu
wik
##kunayuq
hina
icha
##dya
kaw
cha
##kunayuqmi
##puynin
20
mul
kapuynin
##timi
##risqa
multimi
##or
multimidya
suyupi
kapuyninkunayuqmi
qhi
hatun
piruw
kaq
ru
##ci
paqa
san
pay
runakuna
##pay
##llu
ima
##way
##to
aq
##chwa
##uli
##kunapi
##pu
##ispa
rikch
##ran
karqan
##qtan
##unan
##niy
##spa
kama
llaqtam
llaqtan
##isi
inki
##pan
qhapaq
naw
man
##kay
##el
##mpa
wi
yacha
wiki
##hu
##sqan
ur
paqarisqa
ni
##na
##al
ku
tuk
qucha
##re
la
puk
di
qhichwa
##wya
##ro
li
yachay
mun
ll
allin
##rqa
mayu
##llan
##kunaqa
ama
rimay
pruwinsyapi
aswan
##kan
nispa
##wi
tukuy
mi
kaws
tu
mar
18
chi
##diya
##usa
##pidiya
uy
yura
##da
wikipidiya
##riy
##mana
##chiy
ra
##ca
##te
##tam
##do
##mp
##chan
##kuq
##kama
ja
par
rura
way
##kin
ayllu
ap
##chaw
hay
chun
##di
chan
runaqa
##co
buli
llaqtanqa
##kunam
##kunap
##lu
willa
dios
rima
##pis
wanusqa
buliwya
huklla
##chin
yu
##isip
hu
##pun
munisip
##chus
##aya
iskay
munisipyu
jes
qillqakuna
tik
kawsay
##anku
inkikuna
##rayku
llaqtayuq
kunan
riku
hun
##llaqta
201
war
##pe
##taqa
##chiq
##kichis
sun
pusa
urqu
ancha
##chka
mus
re
##suyu
hukllachasqa
##oq
pun
tiy
##00
##rqanku
kuti
##rika
kawsa
puq
##aymi
qalla
##chkan
katiguriyapi
ca
ana
##lan
200
wasi
##kunamanta
##hina
##ayta
ar
##mu
pukyu
chin
##chun
rimana
sach
kiti
ju
pu
##min
unchaw
##gu
##mb
##qay
pha
al
aw
tar
##han
iti
ik
uya
##ris
qan
##lli
##rin
##tawan
mik
##china
will
lli
raymi
qillqasqa
##niyuq
muna
nin
anta
ati
##qi
puquy
##mun
suyukuna
kik
pe
##ika
ami
mis
llaqtap
ruwa
chunka
pukyuta
es
##vi
ti
uk
##pampa
15
yupay
chas
##tiku
warmi
inti
qus
mamallaqta
##mar
no
nisqapi
##ol
yana
##raq
##kunan
say
##chisqa
##chaq
##ptin
kus
sin
##tapas
##anaq
##ayki
amirika
##sh
##lliq
##iki
tikray
puli
kikin
##piqa
qulla
win
##go
rur
##mpi
kanqa
aya
##de
##kuspa
imay
mikh
qusqu
hanaq
10
17
hayt
taki
jesus
##anta
lima
##sun
sutin
##kunawan
vi
##kisqa
##pana
12
##va
##llay
yuy
pulitiku
ari
umalliq
##luta
##kunapas
##ninpi
que
##le
##muq
chak
##takuna
piluta
##kunapaq
wak
at
kun
##llqa
##yan
ro
##qo
11
marka
yala
anqaman
##dur
karu
parki
chuq
uq
wanu
##tur
suma
ruraq
bo
##ej
##lo
hukchasqa
qullasuyu
##ia
chaymanta
##lis
musuq
##yki
allpa
##hin
wawa
yaku
##kunaman
##tana
unchay
16
##ga
##sin
riq
14
achka
mu
qillqaq
##wadur
nis
##iyuq
qh
##qana
kuy
ran
##anpaq
anti
tiya
nawpa
##ba
saq
sut
sapaq
##urin
##pin
##ninta
##cia
tari
nu
astawan
distritupi
suy
ikwadur
pro
phatakuna
##mara
##llanu
qhaway
##yuqmi
ichaqa
nawpaq
kastillanu
manan
##chana
##illay
chakra
##chua
##taj
tayta
##tina
##ria
13
##ninmi
lliw
apusqa
pachapi
ita
distrito
##qaq
##puni
awya
##mayuq
inka
manam
##ve
llan
##peci
kawsaq
ba
bi
kasqan
##cion
##ton
dy
##taqmi
pusaq
quechua
anchay
##ce
chu
##se
wikis
or
puri
##me
distritum
##pecies
##uka
anqayuqmi
wikispecies
##za
piruwpi
aymara
rimaykuna
apusqakuna
##kuykuna
##th
uywa
##kunatam
nirqan
mit
##uspa
ak
wat
llaqtanmi
##lin
santa
uru
##du
ali
##kunatapas
##mayu
##wiki
paw
##aykipaq
diospa
##kus
hap
ut
##qucha
##war
urin
llaqtakuna
##ho
sapa
tuku
##hun
us
##quy
winay
rimaq
##ja
ne
killa
##ter
##pacha
karqa
chaw
qhu
mas
laya
kachkan
##tion
kap
anan
kaqmanta
anqakuna
##rina
##mo
##hiku
##qar
aliman
lu
##ispi
##rwa
qhipaq
anqamanta
##mur
##cen
qati
quwiki
##kuta
km
jos
nan
chayqa
##muy
qillqasqan
kanta
##isa
##pasqa
kim
llu
chaymi
jina
llaqtaqa
kuyuy
kall
runakunam
tiyan
qi
sha
qhawa
##pipas
llapa
##witu
chaniyuq
le
##chisqan
rimanakuy
ruraqpa
ura
wakin
22
sumaq
yuyay
gri
hall
ispana
llapan
##bu
##tri
se
inlis
watamanta
qhulla
kamayuq
llank
fa
waq
siq
##yanu
##llun
##llataq
munan
##ral
199
198
tiyay
##res
##qaqa
waran
kuyu
##tuwa
##wru
##uya
##simi
##muqkuna
21
pik
chaypi
ara
en
##pata
uni
car
##lia
25
##kurqan
##kuchu
tikraykuna
qispi
##ez
inkimuqkuna
nawra
pawqar
sallqa
##niyki
gu
##kiy
##tay
suntur
risi
##ni
kanku
runakunap
qillqay
mishiku
atin
##rk
risirwa
atiy
jose
194
24
##yun
itikuna
23
ayllupaq
pachak
kantaray
con
pata
yachaq
##anqa
inkisqa
situwa
saywitu
cre
##cu
##qtin
kichwa
##kha
mayninpi
anakuna
##wk
chaskin
kuyuylla
##uyuq
arhin
mo
rimanapaq
rumi
##rus
tarpuy
##ne
##tis
##yapi
##mantam
197
anankuna
##inan
pas
pampa
30
##riway
##ras
kasha
##iyapu
akuykuna
ph
rikuriy
qar
wall
uyan
sen
arhintina
tikraynin
mayukuna
##ankupaq
##ani
chinchay
##las
runasimi
amachasqa
28
waray
chuqiyapu
juan
aran
##ulu
ukhu
lo
##io
##uqsi
bra
riman
##kusqa
yaw
nina
kur
nisqakunaqa
kh
##dia
peru
son
apa
##kusqan
ab
qatiq
196
cu
sinchi
qo
##llaq
org
##pusqa
punu
ital
niy
bib
##su
##llapa
licen
##ec
##chej
qull
##kunaq
latin
27
yapuy
je
mawk
runap
anqaqa
imayna
runakunata
##kamam
kamachiy
chawpi
26
##wata
ayriway
##qun
##rum
simin
kantun
tawa
pur
##dar
rit
aymur
kanqaku
puka
jesusqa
aymuray
hinaspa
chayrayku
kimsa
asqa
kamasqa
anqapi
kutitam
qallariy
##marka
rurasqa
yalapi
195
riqs
pan
##ber
wina
del
hunt
acha
##mpu
##jina
chili
##oo
##marq
ayamarq
manta
tin
##siya
awqaq
##llana
##tribu
##nan
yapasqa
##ayku
##dro
##ati
aqa
jis
##gi
##ww
churin
##ena
saqillay
go
hinan
kalin
pich
hinallataq
nisqan
29
www
##ph
pachan
ruway
che
kalindar
markapi
me
quy
##illka
willakuna
##sil
alli
##real
uyanchasqa
aranway
##anchik
waqa
kamachi
amaru
license
##ike
italya
pis
400
willasun
inlish
am
##span
kasqa
creati
creative
##paj
qillqataqa
wanka
yachachiy
chanin
hukchasqakuna
##vin
##mas
walla
hampi
llaqtakunapi
chaskinki
paykunata
dyus
uch
willasunaykipaq
waman
apuypaq
attribu
phatakunacha
shareal
inkisqapi
saqillaykamam
attribution
sharealike
##wana
chayta
cor
paqari
##dad
min
po
193
##lika
pukllaq
##mus
papa
qarqan
000
cas
##run
quchamanta
da
usa
urqum
chanta
brasil
jun
hark
yawar
##ero
##chikuy
##po
sal
##ista
allinta
el
##pim
kaymi
unquy
##fi
192
munay
gen
##chispa
yuraq
pisi
pin
##pura
##qipa
qay
chur
inkikunata
hunu
senor
apu
##llur
yupaykuna
ariqipa
bar
was
##chunqa
payqa
uj
nak
payta
31
tan
##bi
waranqa
so
##ano
##kiq
chunwa
willay
kaspa
##pub
punku
ransiya
to
buliwyapi
ata
##ona
kitilli
willka
isqa
##rist
anqash
chaq
mitrum
alimanya
fran
##ninku
bu
jatun
qallarisqa
pikchunqa
##cho
kacha
qhari
han
##uqu
para
repub
##chkanku
##riya
simita
##isqan
kashan
antikunapi
waqay
anqakunam
mancha
muyu
chaya
yay
##ge
maqana
##wanmi
km²
ahina
juk
##uni
ga
##piri
jan
qhe
runam
runakunaqa
##hova
jehova
##ks
##llata
##rio
tanta
kaynin
tarin
provin
jisk
##tt
watakama
##kuynin
nawi
suyum
191
aqmi
yachan
llaqtapiqa
kana
iy
llimp
be
chura
qos
##ps
##qe
hi
##niyoq
##tuy
utuqsi
##sha
inkimun
##llo
##kuyta
ruru
##llp
iniy
pichqa
##ts
##che
riqsisqa
ruray
##um
##aq
kaypi
tiksi
takiq
anqamanqa
qanchis
noqa
bot
##ukama
##willka
##rirqan
##chawwan
amarumayu
mall
suyup
yaqa
##tura
republika
provincia
pedro
kasqanta
##tas
##dor
##ere
##osqa
##wasi
##rispa
qillqaypi
iwru
##be
##riq
ayllun
##tes
can
do
##ko
lliwmanta
##ver
wasin
maria
##kunku
ruwan
quyllur
indi
fi
ill
plan
yun
##kunapa
suqta
kura
kaptin
waw
kani
##unku
kancha
imata
te
##tilla
##manmi
pipas
jo
utaq
chall
paykunaqa
pusapusqa
kurku
uku
##gur
llaqtamanta
akuna
##les
##has
imarayku
##maq
chh
krus
##aspa
rurasqan
##vo
##kunataq
machu
kayta
simimanta
quchapampa
sonqo
##phi
chiqa
kawsachkanku
ulla
##nu
paykuna
tiyaq
katiguriyakuna
hucha
kusi
##cas
kananpaq
##qanku
misk
mon
unu
ho
and
hamu
taripay
##sapa
##ino
##waq
##paqmi
tawan
willan
##tia
grigu
junt
jallp
pruwinsyam
ayakuchu
dyuspa
kachun
waki
##kunataqa
diosqa
rimanku
inu
uyarina
uralan
pana
qun
manana
alla
niqi
iwrupa
##ento
yachachiq
umalliqnin
pachantin
kanan
ci
##ck
wanuy
##eb
##tins
##fe
##kichu
yanapa
nuqa
kulu
wallapi
runas
qaqa
kalindary
tarinki
##dri
##gar
##kaq
suyukunata
mikhuna
##unchik
##he
##psi
kalindaryukama
##don
##rra
##que
tay
##ʼa
qam
rimasqa
suyukunapi
##cio
##elqa
ach
munisipyupi
pisqu
au
ika
phu
##tata
##tiy
190
biblia
##gen
##bo
##mantaqa
##mpusqa
##qtaq
##erqa
##chirqan
boli
aklla
aqu
ben
pukllay
wayra
kulumb
kanki
##manchu
kaymantam
unchawpi
##iqi
sara
quchakuna
uyarinakunatapas
nun
simikuna
grigur
##ii
##qaku
##lati
chaywan
##paya
rus
wayna
millay
##llam
pus
kar
##iyu
lluq
hunin
##den
##tra
unan
amachaq
##risti
##par
titi
wankawillka
wis
fer
##gel
rio
chaskisqa
wakllan
hur
##ikun
jach
hayk
wanuku
hallka
##saq
rikuy
hinam
pusampusqa
ahinataq
kapchiy
phi
challwa
##illa
kapuq
32
##fa
wira
shi
pakay
ina
##yta
##tad
##ukun
ash
hinaspan
piruwpa
nit
huch
puch
warmiqa
##anapaq
##via
walltay
##risto
##cul
##ninkuna
##nintin
llika
tiyanku
##gra
rikh
chinka
nas
##pha
##tampu
##des
inlati
qhipa
kamachikuy
hallch
raki
winaq
uchu
anka
nacion
martin
##qayku
espiri
manaraq
taq
mayq
aws
##tro
chik
##illu
wataqa
yachaykuna
titiqaqa
inlatirra
aki
va
##puna
wamp
runallaqta
##osa
rey
plantilla
llimph
##car
piru
2013
manu
ge
##no
kanman
kamachiq
htt
wawan
val
llak
##rawi
##tinpi
sunqu
##gua
qullqi
##qha
##ikuy
aycha
kanchu
##chinku
kallpan
saya
##oj
##kura
##ninqa
niyta
los
##sis
##men
illay
wati
wasipi
chincha
griguryanu
hul
per
##pina
##tar
tantana
##kina
anton
ber
pirqa
kawsan
2018
maqanakuy
##los
##win
##tor
##var
##mir
##qui
##ukuy
aspi
takichaq
35
lib
##olo
indihina
ec
kusa
##rata
runata
santia
suyun
##tus
kamay
antan
##mantapas
##purqan
por
##yku
tuta
189
ikra
ruwasqan
run
##tal
##pedia
puriq
maki
##ninwan
kamarisqa
imaraykuchus
##san
kaus
angel
##naq
##mba
qosqo
##ykichis
chaski
allpamanta
he
##ron
##lle
api
kha
##gal
pala
paka
##chiyta
##chinapaq
https
##lay
##yay
ariy
##musqa
187
imaymana
kin
##bel
watayuq
rimaykunap
kunanqa
##emp
kachka
pachakwata
##ros
chhas
##kurqanku
parti
ruwasqa
mikhuq
chhasku
rin
wikipedia
##risqan
santiago
lan
##era
##erto
2014
##kurqa
##ninmanta
##unanpaq
villa
roma
36
##il
##ish
runaq
huwan
riqsi
antonio
##hua
qucham
tur
##qh
llaki
kamachin
puriy
##chasqan
wamani
isa
##gan
##cis
##qon
2016
2010
luri
mur
kaqta
wari
aqkuna
kuyuchisqa
iq
##sta
##aykichis
nisqamanta
fami
34
##wanu
##chanapaq
ala
dis
ayniy
kitipi
runasimipi
purin
sh
kunti
her
sichus
watap
santu
ukhupi
ir
ser
##pur
##wra
##illan
inter
yachachisqan
genus
fernan
req
33
dere
yaya
##zo
##punin
uchuy
mallkiq
##ara
manataq
##cal
hawan
qullqa
askha
##landa
antikuna
gov
apay
mill
##ten
##chaqa
nirqa
jap
##yoq
siwi
qara
liwru
ukhun
tawantins
willakuy
2007
##uqucha
willaniqi
##manu
##ukay
##panku
sunturnin
38
kuna
santo
##waya
manchay
hununa
on
qelqa
zoo
##pitaq
mate
##asqan
2008
ai
##gus
llaqtaman
urqukuna
saywa
khuya
tawantinsuyu
kn
##aypaq
##wanpas
quri
taw
182
2006
esta
##uc
qui
pruwinsyap
nihun
migu
piruwanu
43
muni
jesusta
imaynata
miguel
fe
##cos
##jo
ichataq
aswanpas
2001
45
##ine
188
allampa
kulumbya
##muspa
##anchis
##kuman
nisqata
ini
183
##kunanpaq
taqna
##rka
##kamay
imatapas
##kaya
lampa
chiri
tiemp
luritu
kachi
watam
aska
chanka
sunay
ninchik
ruwaq
patapi
canton
##rqani
niqpi
puma
yan
##gas
##pus
##chakuy
pachaman
apuri
##dio
##das
##unki
waru
##eno
new
##xi
186
##unya
##llis
makin
aswanta
kashamarka
mos
mor
##chaka
chaka
karqanku
kuraq
umir
pat
pili
jesuspa
os
tus
##dan
sasa
mayum
##for
##chas
char
supay
parla
2015
awa
gra
panta
##tos
##ju
##kunqa
##chayuq
chaki
kupa
chuqi
40
##ven
maman
madri
##espi
yachaywasi
nunuq
hulyanu
##ry
##ban
##paqpas
tak
hinaqa
taytan
##muyu
nisqapas
##chiri
lipis
184
aph
gar
kuska
wakcha
iru
##so
isra
markus
yuram
mast
nisqawan
qillqaqmi
##partam
za
##boo
##llawan
lloq
anchata
facul
facultad
##wri
##pak
##isuy
##ninchik
unay
paymi
nobel
##raqmi
yawyu
espiritu
af
miray
puerto
luis
iman
jay
kul
##bya
##mantan
##ong
kuru
carlos
janpi
iqta
##iku
##mina
##tari
##pio
kunka
waqachina
##tika
##chaspa
hamun
rurana
estado
munici
apurimaq
qawa
mamallaqtapi
nawirin
beni
ikunayuqmi
tor
##can
##kupaq
imayay
cheqa
francis
illu
tha
una
##payki
diosta
##books
aka
ji
pul
##kuwan
sama
kaqpi
juch
llimphiq
tantanakuy
aphrika
##der
##van
camp
fernando
jer
##uta
##gos
##blo
kalla
##llataqmi
nisqap
sapan
awqa
##ykita
phina
inec
takin
pikchu
madrid
ukaya
##por
##llpa
##qanta
departam
rikusqa
2005
##murqan
kuntur
abya
kins
yor
kawa
##kusun
sir
punchaw
kallpa
ruruchina
ban
sana
ter
##tasqa
##ise
karan
##llasqa
domin
ukayali
res
mat
##chikun
##kunapipas
pukllaqmi
nawirinaykipaq
nuq
qon
##kunas
waka
kayqa
##ninchis
##kuychis
wikibooks
##land
ninku
46
du
of
##lor
##ey
##rawa
hinataq
##alen
2017
suni
2009
winisuy
##versi
departamento
50
cer
##suy
##ima
##per
sutiyuqqa
185
sumaqta
llulla
kichwapi
kalindaryu
inuku
waruchiri
##llisin
ajina
cristo
##con
##ji
##kupi
sur
profe
tiempo
##say
##llin
chuk
churi
anas
llamp
##chayta
munasqan
yuya
much
##berto
chaqllisin
##wanqa
tata
##chikuq
saqra
kanchar
illi
las
##rana
sipas
##iqu
hinata
nawin
urasuyu
yunka
hamut
winisuyla
nor
##ninman
lluqsi
atuq
##gion
aman
jor
the
##cel
##ram
unq
chiqan
paris
wasikuna
davi
mateo
gi
his
##ren
##manpas
harawi
chaqllisinchi
gris
kath
munakuy
llumpa
rusiya
mayqin
nuna
tra
##cer
##ing
##ardo
rimaymi
warmin
##ristu
##ptinmi
qhes
partidu
44
jar
ke
mach
wanus
imapas
yurakuna
papam
francisco
far
##ae
maypi
ispan
kawsaykuq
uyarispa
jesustaq
universi
nacional
ig
kristi
tun
##guna
kapun
##wanchik
aytu
##chaymi
runakunaq
nir
kawsayta
2011
kitim
ruran
wawakuna
nawpaqta
waqya
##cua
shimi
david
kathuli
ichana
##fo
##chakuna
##kumanta
##qanqa
suwi
chayna
##encia
rimayninmi
muru
tinkura
derech
piliku
kathuliku
tinkurachina
42
up
ve
##siy
##kta
##zar
##aykuna
china
kamachina
##elo
bau
rimaqkuna
iwrupapi
qaqatampu
manuel
siwikuna
municipio
kristiyanu
37
achisqa
edu
rosa
##dal
##ms
##law
iniq
iskayniyuq
sinru
ikrasqa
39
shu
##hka
##ini
##kar
pachata
suyupipas
jesuc
uyari
inlisya
wakllanwata
akun
ex
fu
patan
##enos
chim
vic
pinchik
ilanda
qe
runan
##mpis
##runa
watan
##ikan
##kita
quta
##ary
isqun
noqan
ranti
bolivar
wakllanwa
qespi
sus
aspa
##chirqa
nirqanku
yurakunap
raphi
warma
mish
100
luk
pre
upa
ven
##ei
chiki
ayta
mira
iskaynintin
##qtinmi
bolivia
puchukay
aj
asi
ame
sik
##et
##manqa
wapsi
##oni
##orqa
winan
buenos
kinsa
sanampa
domingo
pilikula
##jta
##kunalla
##raw
hukkunapas
sapsi
kaqtin
pruwinsyapiqa
rap
qallari
47
lin
##ang
pablo
##kunchu
aynin
ayniyki
##est
##tisuyu
familia
ispanul
pinchikilla
cru
ich
lay
##mama
paul
sipi
##paqqa
chaysi
##esa
##uras
pruwinsyapipas
mikhun
jerus
pla
##ty
##was
##ninkama
kanmi
qallu
paypa
##chkaq
atipa
mask
##muyun
aires
achi
imana
##bur
##unqa
##rica
llaqtay
nisqam
chayman
asa
rimasqan
kawsari
ikwadurpi
mina
tru
##son
mamay
hamuq
##mantapacha
manachu
##lio
qhali
ish
##kunapiqa
diosmanta
qallarirqan
usillu
minist
grisya
ko
##tuyuq
##bas
##llas
##qanchi
yarqa
payman
yachachin
rak
qankuna
munasqa
ayllunmi
rurasqankuna
rikhuri
york
wakllanwatam
bus
lon
##paqa
##yasqa
##ruway
such
qillqan
##rani
hunusqa
sunquy
yanapay
suya
akllana
rimaqniyuq
sonqon
01
qol
##tral
##mala
waras
indya
##quia
sutichasqa
pachamanta
##spaqa
yupan
pusapuna
kusisqa
llapallan
willkachasqa
khu
pal
##tukuna
riki
wikch
runakunaman
kamaq
yawli
kausay
cen
ipi
tri
##munan
maran
##raykun
paqarin
2012
nuqayku
winaypaq
arabya
kantunpi
usaq
jerusalen
55
ger
pra
##ys
##ela
##mani
wal
mal
chayri
quchapi
anchaq
chaymantataq
pasqu
bible
hanan
qhepa
qheswa
flo
ullu
##anu
kayman
##asa
##wayi
urma
181
rakiy
anchar
rurun
##ceae
wiraqucha
41
pill
##dun
##mis
##kas
asya
wanku
kamachisqan
mikhuy
chiqap
panama
ad
lar
muq
mel
##ita
##dre
##wiya
##tara
pachay
sirk
qutu
unriya
rikcha
tullu
diosmi
qallawa
unchawninmi
kasqanrayku
chuqichaka
nerqa
##yaq
##ninkuta
chaylla
asyapi
##llukuq
rakin
waylla
##lub
2004
chawpin
04
cus
cal
kristu
puna
uray
##tuq
##tataq
qillqana
micha
kawsanku
unchaypi
phuyu
apayka
##yana
##wis
paqta
har
kumun
nasyun
kis
uruway
##yi
##unchis
##kamayuq
##ninkunata
piwra
watapis
napay
chaqa
##wayku
laguna
mayutata
sunqun
unchawqa
leon
achkiy
augus
israel
gre
uman
##kana
##ft
##pari
maq
paq
anqas
asllapi
waylas
hua
rikuspa
qanchi
akllasqa
pukllaykuna
##olog
##lon
##hay
##puq
hamp
##tul
##ankuta
riqsin
gua
iqtay
juli
muy
men
pura
than
##unkichis
simitam
watakuna
##tinmi
##arqa
mayta
wayllukuq
cali
umalliqninmi
parawayi
manchari
kinray
imaynatachus
london
uruwayi
illa
ver
yanqa
##ke
##wisa
##isha
##chakuq
##warqan
##wash
##iyi
nau
paykunaman
raw
putu
qullaw
##tionary
cuer
cheqaq
chaninchasqa
kachari
00
ii
muk
haw
simikunatam
ink
anqakunata
##chischu
yachachisqa
2003
noqayku
pawlu
neva
qhawariy
qispiqanchi
andres
mayqen
kalindaryupi
##mpaq
##gh
##chata
wach
masin
simiqa
##wanku
##kunapim
qallarin
phaq
mikhu
tiyakuynin
##bamba
chuku
kimsan
waqachiq
chaywanpis
inakuy
03
ampa
bal
puy
ruk
##iwa
##cri
##wu
##anmi
wara
mariya
suyuqa
##tugal
chaykunata
tampu
chacha
##ptinqa
wawqe
mosoq
pachaykamay
suq
##ze
llaqtata
kichka
##osto
##mayo
wiktionary
##punku
chinchi
qarwa
gene
waska
##ukunayuq
kallawaya
qolqe
##dra
##zal
##tasa
##ayza
##llamanta
##usi
hama
suyumanta
und
##nam
chimpa
##chinqa
yupa
##gue
##kusha
loayza
mallki
geor
antanka
kill
mer
riy
##dyu
##hn
##ancha
##inas
allqa
##niykichis
kitip
##dez
llut
48
akunam
##ff
##llina
##rida
kaykuna
suwa
pachakama
kaqkunata
##cial
##niyoj
llik
ale
tukurqan
##tista
ashkha
kallpanchaq
65
78
pen
##nes
##payuq
##tre
tara
##sqanta
anam
##lista
nanay
unancha
rikhurin
wakllanwatapi
isi
##mer
##gro
##tapi
mari
kaykunatam
kankichis
##chikta
dia
##chanqa
2002
yuyar
##ejo
waqll
02
cristi
illan
##yn
##ykuna
##ea
##isya
##llka
pila
kanayuq
##kichischu
hampikamayuq
yunkay
puchukayninkama
nevado
kimsantin
tes
uta
##nas
##rd
##anka
##pita
quchu
ispiri
2000
kaqlla
runakunapaq
tupaq
jucha
warmikuna
kuskan
##sunchik
bil
urupampa
ispanapi
salva
nuqanchik
maypichus
09
cla
utu
vo
##ces
chiq
##wat
simim
##espa
qillqap
##erra
wich
yachakuq
orqo
utc
##ney
yawri
##tsik
illaymi
##roso
khi
##zi
##qasqa
waway
anayuq
##kichik
##mantaq
##iqiq
##ham
suwisa
##ente
qari
##kunapis
tukri
180
##munqa
mamallaqtap
##net
##apa
##nia
##zon
##chen
simon
uychi
1990
pukara
wamanqa
achkha
runtu
emp
huq
pru
sina
##xa
##tillo
##usta
mag
##iyun
manataqmi
suyupiqa
allinmi
##cocha
wallqanqa
purtugal
ruwayta
##tinsi
wisq
awstral
watimala
antaniqiq
shuk
onqo
achu
dani
iii
##ichu
##rusqa
##gon
##tsu
##piwan
##kunachus
chha
pachaku
ramon
raph
##murqa
jehovaqa
tiksimuyun
chhika
##iseo
53
thun
##sen
##llarqan
##paspa
qapa
##chanku
cara
munaq
tantasqa
kanada
kusituy
tawantin
phukuna
chaskirqan
liwrum
patanpi
ishkay
yupanki
cusco
kumunista
54
klub
##ir
##je
##mari
##rias
##wanchu
##pasqan
ayll
kanchik
##oro
ruwana
##niyku
mic
##usaq
##rqankuchu
puqu
##mbo
sutinta
hinaspataq
chilipi
cord
qaylla
wawq
john
07
uqu
##shan
##mri
##llaqa
##ene
qhipan
##unankupaq
lari
yachayta
alf
qankunaqa
kusikuy
contra
##ristoq
phili
unduras
akuq
achinku
fc
xi
##dos
##quq
##jas
##bal
##kur
##rahu
##ruma
macha
aslla
allqu
##ele
nitaq
##dae
##riyta
waya
region
taytakura
yachaqsi
cruz
muqiwa
melgar
lor
##mos
##qsi
##jtin
##rikun
##ruru
inde
paypi
paywan
wit
wayq
##chinchik
ruranapaq
tarija
suyukunayuq
##thiyu
waraniyi
##musqan
pisilla
hunucha
cerro
derechon
daniel
nuk
ruq
ul
##wt
##bar
##para
##charqan
sil
runaman
qhawan
tuktuyuq
kunankama
imaynan
rimanakuyninpi
atinchu
##bert
takiqmi
pachakwatapi
jorge
jesucristo
60
pri
web
##tica
##manjina
##sip
##ayuqmi
ispa
allinchu
aposto
muspha
altu
##shka
tukukun
qichwa
ley
mishikupi
yachaqkuna
pastasa
kulumbyapi
libro
lloqsi
general
500
ce
illapa
ray
waj
##rup
yapa
qura
comuni
##chiku
pachamama
ruman
qhichwapi
##kani
yurakunam
wasichay
putina
tiyachkan
distritupipas
palama
hununakuy
imi
usqa
##rya
##sia
allwiya
##chanta
romanu
kamachikuq
pichqayuq
ankash
awstralya
awan
bor
cana
for
ikuna
rayku
##ue
##qus
##cham
##uska
anima
kasu
##esar
##istan
wanun
napu
rikun
##chikpaq
##purqanku
law
wayll
chinu
este
llump
qocha
walltaypi
awsti
##qhay
afrika
kristup
56
akisqa
gran
iqi
##pen
##zco
aykuna
asun
##isiwi
apus
musika
alberto
##chinakuna
rock
1947
amachasqam
casara
pulunya
aphrikapi
susya
inkisiwi
05
nur
wana
##yo
##mes
##ego
##ptu
##val
##tiya
##chiwa
munisipyup
tika
anaki
ninmi
wanurqan
hallp
palab
servi
empres
49
75
gon
lista
phin
wuli
##unapaq
##tien
##ust
huknin
##ille
sala
niran
kuba
##rinku
munaspa
misti
##kunanta
##dea
alimanyapi
qhipaqnin
tomas
qhepan
##aykichispaq
ninchikmi
51
68
az
ed
iya
nar
pp
tuy
ull
##qachu
##tachu
##kunatan
##masin
llaqtakunap
##wara
##illqa
sam
rafa
##ayaq
musiku
kikinpa
mikhunchik
179
##lea
niykichis
illanchay
ecua
shina
sol
##df
##mpan
##rpa
##chuy
##inka
##lata
kaj
##tiyki
##chaki
##kutaq
##uki
##ikunan
##sqayki
##asha
runakunapas
##lluma
wayta
buliwyap
awqana
muchu
nawpaqnin
franz
##tuyis
comunidad
64
fre
hoq
kuka
tiq
##gun
##fec
cho
kaylluma
##inapaq
##iyki
##kunmi
manas
##lica
qhawana
isku
chaku
##nata
diosman
##deo
1984
purtuyis
muyuriq
kaptinqa
imatachus
ukucha
ukhunpi
bauti
muksi
rafael
06
52
atu
cos
pdf
sisa
##hpa
##tapis
##qantin
sit
##kitu
##rqanchu
qillqata
manaqa
##llanpi
tupi
##kunapura
kawsaynin
##niyuqmi
ruwakun
153
yupaychasqa
chuqll
kallpacha
1980
cuzco
sinchita
gali
kalindaryukamataq
pachakamaq
fo
tuna
##ut
##cay
##unman
##wanki
kitu
pachaqa
kutu
##roquia
rimaynin
aylluman
munisipyupiqa
kutiri
##mbi
##marca
kusisa
nuw
killapampa
##niykita
wallpa
tiksimuyu
valle
bern
angeles
##cerdo
universidad
wichq
ecuador
hin
muri
##sayuq
##pon
llama
##llachu
watakunapi
##insi
llaqtapipas
tarata
##kuypi
nawa
hinallataqmi
wila
quchap
chimp
parroquia
apulu
##chinanpaq
wasiman
##chunku
mamallaqtapura
roman
uywakunam
yuyayniyoq
fauna
nisqanta
brasilpi
bela
suqtayuq
##gradu
pakasqa
##anchispaq
##paykiqa
kawallu
califor
70
ac
ol
quya
##cana
##bre
##anan
##tico
pasa
simiman
ripu
sacerdo
anqata
##aro
sutiyki
qachu
hinachu
##toria
manqu
waywash
iskaynin
atiq
155
pulitika
yalap
inkakunap
entien
pataman
##lasco
tinku
##ninkuwan
khallka
saywapi
suwit
mishki
tiksimuyuntinpi
awstiriya
california
apan
are
bolog
il
jus
nana
rispa
uli
##muk
##isuyu
llaqtakunamanta
##kiya
runapas
##kunanku
samay
##raya
isqan
nawpan
parya
wayt
sayar
##tero
munani
chantapis
churana
kitillim
##cheq
kaptinmi
chhikan
mananam
famili
sanampam
##rosoft
raphiyuq
microsoft
apaq
hill
pisqa
##ic
##tsi
wam
hata
##mantataq
##illo
##illera
yawa
##qullu
runakunapa
rimaypi
tumpis
maris
sayay
parkipi
##cional
tiyanan
##rales
lou
##kusqanta
paqarichisqan
internet
khuyapay
##lores
fariseo
igna
chuqlluqucha
achay
dan
gal
ichi
thu
wayuq
##ptinsi
##ος
##ismu
chill
runakunan
kicha
pitaq
##uro
ayni
##chikchu
qhapaqsuy
##kayu
wil
##llantaq
rimaykunaman
##kunapin
huan
judio
##mbur
awu
##kunawanmi
pusaqninqa
chullun
1996
churay
chiksuyu
libre
tusuy
profeta
uwa
##eli
##eto
##rq
##cre
##kh
##unde
##taka
##llapas
##waman
pak
kaya
ins
tapuy
tamayo
kaqqa
wiru
nico
mila
jaco
##lliqi
178
yakupi
rantin
qiw
qiru
1945
1969
nisqanqa
puchuka
feli
lampalliqi
sasachakuy
pilikulam
raphin
ispiritu
ignacio
58
ag
akiy
kriy
uti
yayku
##ora
##laya
##tz
mara
##kam
##mantawan
##tum
##tupi
##esta
umalli
##chispaq
##chiwan
allta
kaqkuna
rimaykunapi
##kanu
chantaqa
munisipyukuna
puqun
##ole
wanuchin
chumpi
qhawari
1975
loja
cheq
uchqu
janq
##ebre
nunu
reqsi
jarani
animal
achan
bri
ira
xii
##ira
##dis
##ger
##int
##miy
kaqtaq
##kupas
wacha
##ninpa
llaqtapim
aypa
asqan
ashan
runakunawan
##panmi
##nachu
pukllana
##gui
ruwarqa
##vier
vir
chuqu
qhelqa
tarikun
1981
barcel
##bet
imatataq
victor
chikichasqa
pusapunakuna
cordillera
lariqaqa
barcelona
akin
cul
ikan
qas
##tha
##vas
##jes
##paqtaq
masi
hukniyuq
##ninkunaqa
chaykuna
chaypacha
rirqan
pichin
##tinqa
sutikuna
naqha
##chika
##llantay
tupa
yurakunamanta
jac
apo
chunta
##kunamantaqa
##kunamantapas
##qayta
uyaris
qanqa
takikuna
##tanakuna
##punim
sapallan
lucas
1982
mois
lope
abra
bibles
qayan
pusha
sapanka
unqusqa
velasco
57
hel
ix
##ld
##rri
##gs
##kayuq
##wiy
##vej
##biya
##rupi
yar
##chuku
sati
##kunatawan
qasi
maya
##ore
yachaqana
mitan
tull
##kuqkuna
punta
sunturkuna
1973
pichqantin
poli
muqu
tuq
##ida
##qillqa
##jch
##kuru
##kuchun
llaqtapata
##kaqta
nisqaman
runapaq
simip
##ninsi
saru
saphi
pid
naka
imachus
##ranku
llaqtanchik
##naqa
##wiga
willasqa
anapaq
alto
##shqa
karum
phisqa
arhintinapi
##phay
##musha
aqupampa
pantay
eduardo
##burg
nurwiga
08
ah
er
kʼa
pʼ
yuq
##ota
##yqa
##ruy
##hqa
##kis
##korqa
##bana
##kunarayku
##kurayku
llaqtaq
waqta
paz
##kiman
kaymanta
suyukunap
pichus
kanka
##iste
imas
aqway
aqtanakuna
lawri
##rqaku
rimayta
wayas
yupaychan
noqaqa
wawaqa
##jama
1992
1991
1949
mink
yayayku
illchinakuna
hawanpi
qhaliya
phaqcha
salvador
empresa
ashaninka
lawriqucha
akunapi
des
iri
ucha
##ʼu
##ов
##kachay
pari
pasip
sull
##iyta
##taqi
qata
hinas
kaqwan
yachaspa
##kancha
rakiq
willaq
reli
tarisqa
yanapan
103
##lisa
sutʼ
1964
panpa
gob
##anchikpaq
##ficial
chaqna
ichhu
wankurisqa
chaqallu
gonzal
mariscal
pasiphiku
98
don
ovej
qel
##uma
##dy
##del
##gia
##gio
##ws
##jar
##ayoq
##kuwa
##wak
anto
##asta
qala
pachapiqa
isquq
chala
##chiqkuna
urqupi
pueb
##guez
antawa
antasqa
espan
takiy
rodri
muhu
nue
nawpaqen
uywam
##kuska
##warispa
##nesi
chayraykum
barba
llimphi
imatapis
monte
kallpanchay
sayari
ministru
naupa
apostol
pichincha
300
akunata
bon
gisqa
iran
khan
liyun
ال
##ave
##msa
##hanku
##wina
##tran
##titu
chus
##kacha
anchan
kaywan
huktawan
samin
saqi
sajama
##chaymanta
##erre
tap
pacham
##waylla
aqpas
kamachisqa
rakina
##punqa
##kunamantam
uyariy
antata
dyusqa
uywakuna
maskha
1946
kurkun
rurasqakuna
churan
villar
disney
kultura
educa
maranun
61
85
96
qin
th
##op
##hika
##pto
##we
##qacha
##kum
##rico
pitu
##kunatataq
##ens
##uriy
##urasu
tatan
##kuychu
isla
paqarisqan
##kunapiwan
kamari
tumi
chichas
##kamaqa
chunkan
bulibiya
kawsaykuska
##chkaptin
tiyana
##murqanku
itipi
##mpiku
vii
wawas
chupa
1993
1989
1985
1942
chinchaysuyu
kamachirqan
##koj
anaskitu
chimlas
julio
chimpurasu
belaunde
##gradupi
bolognesi
lopez
qayanqillqa
59
eli
imp
sis
tec
##lta
##rayuq
##gn
##hillu
##jun
##chez
##cherqa
##chakun
mati
kaykunapi
kanankupaq
alliy
iskus
rump
runakunamanta
##payta
niwan
tukuspa
##cado
rikuchin
puru
##mino
unchawkunapi
##kunantin
allpapi
unchayta
nispas
pusaqmi
atiynin
##yunmi
1974
imaynachus
asqakuna
pando
ayniyku
ulimpiku
rodriguez
73
ip
inin
tsa
thas
##am
##anpi
##rado
paray
anku
has
##kunankupaq
samana
satana
saave
kananta
kaqnin
##isimi
lago
marcos
##dol
wayk
haywa
##dios
##kichismi
awki
uyarin
uyariq
ukt
ruranchik
atlan
sumaj
1983
##reso
atiyniyoq
qullq
republikap
chaywanpas
geo
takichaqmi
respe
hisus
wanusqana
victoria
flora
waqlliy
paryaqaqa
bas
cesar
hor
nika
ste
##asqa
##din
##mpas
##cur
##jra
##ismo
##chawan
wasa
sill
qillqarqan
##oso
wankayu
##kuyuq
qall
ispi
##cien
paykunan
yupaychana
vicen
uquq
qillqaqkuna
sutisuyu
killachawwan
luz
1986
1976
1970
kashaqtin
kantunmi
1954
1928
unanchan
tawqa
jayk
thansa
galilea
saavedra
600
99
90
bis
bur
bel
yo
##ucha
##unpi
##tario
##inqa
##pam
##rikuna
qullu
quram
##uran
kanina
sutipaq
##chista
aqniyuq
##ranya
tuktu
chimpu
##tera
##kuqtin
aplaw
willakuykuna
qallarina
pulitikupas
shaw
1998
hurq
saywachi
ayniykichik
khuchi
bilhika
derechonchis
66
82
80
ipa
nust
raya
##niq
##dsuyu
##eri
##gre
##cta
##cchu
##wlika
##tuna
##bri
##ια
##chkay
llaq
##kuptin
wate
##ruku
maqa
chaytaqa
##kunki
saint
watapim
wanuq
chakin
kaqkunaqa
munana
mayup
puquq
##qaylla
alma
munas
antawaylla
yanapana
rurayta
yakuta
nuqaqa
akllay
masiy
josue
kimsayuq
runakunataq
paykunataq
churkuykuna
1918
pisqum
rusya
berlin
reqs
uchuylla
israeli
suwidsuyu
servicio
wuliwya
ripuwlika
chullunku
amanta
avi
bru
emi
iv
nº
ore
ras
tse
##ska
##ykuta
##cus
##vg
##tapuni
##kunami
wachu
pag
nisqakuna
simillapi
chaypas
rich
##ulo
kasara
sap
sami
ayti
##ard
##arch
##arani
##ern
asuy
qhas
unyun
sanan
sanchez
paymanta
##payaq
##niyta
wir
laq
laqh
##dam
##riyku
kawsaypi
cama
arin
willana
willkan
##vian
ukranya
parkikuna
rimaqninmi
waqlli
enri
atiyniyuq
1941
1979
khur
##chejta
gobi
ampay
chaqrusqa
wawra
tex
llakikuy
kachkaq
ruruchinapaqmi
jark
akllanakuy
klubkuna
philipina
kusisami
nikarawa
im
it
oli
uqa
wisa
##dus
##ccion
##zan
##fn
karun
katari
chuya
##llapaq
##llakta
##rimana
mata
chayraykun
##kunman
##quta
##quez
##chikqa
wikisimi
yachasqan
yachayniyuq
parina
hayni
rimarirqan
rikuchi
arma
taruka
sayk
107
chakana
chaymantaqa
##media
##kushan
1994
1939
1924
nawiriy
huchalli
pirqapi
herman
tawayuq
garcia
layqa
imanaqtin
chawpinpi
waskaran
alfre
sacerdote
religion
iskusya
vicente
62
81
aru
fri
tho
wor
##sya
##ypi
##dona
##tter
##aypi
##tivo
##ril
wama
##wasin
hamuy
hukkuna
##ones
##iyan
chaypin
inca
##kuni
##urina
anqakunapi
colo
asway
hawaman
##rayil
israyil
kaqpas
ruphay
paytaq
##ranllapa
urpi
javier
huay
sunayta
urqup
puno
anachiy
peter
jesusman
limaq
uqyay
nispanku
##isaq
search
cons
1978
khillay
apachi
1951
salmo
hanlla
kaniti
##cardo
ajinata
upyana
apustul
pariwana
chunkantin
wikisimitaqi
63
76
71
pon
ros
sta
sika
##uca
##im
##my
##pt
##tk
##than
##bra
##and
kampi
##tian
##kuma
##qtaqa
watana
hatari
##tuta
quwi
qufn
##urqa
##liwru
##isto
pachaq
islu
wiksa
##unanta
nawch
nillarqan
lado
##rqayku
tupu
parlay
diospaq
hullaqa
##rini
atipaq
154
intip
ruranku
wawamanta
nut
nawpaqman
##qaqkuna
uywakunap
ispanamanta
sunturmi
rumita
1977
qaranqa
1963
1930
castilla
atawa
kitillipi
willkapampa
churasqa
wawqi
truhillu
prado
rurunkunatam
cuerpo
chukuwitu
witnam
espanol
shawsha
qufnt
74
89
listri
prin
piki
vino
##nej
##ep
##ben
##unaqa
kal
##kuqa
llaqtapas
wamin
##iko
##raka
maqay
palla
chaypiqa
chaynu
samu
##erva
##tani
taka
pachap
wikiliwru
kutin
michi
kawsayninta
phax
ruwaspa
kikinmanta
##kunapaqpas
inkarri
llaqtakunaq
##mora
1961
1955
churinkuna
barran
ashwan
naska
ariykuna
muruyuq
qelqasqa
takana
illimsa
noqanchis
maqt
illapachawwan
bautiza
murillo
apulupampa
tumipampa
72
88
hen
pol
umina
##ias
##ble
##bio
##lar
##wasqan
pallqa
simana
kaykunata
kayninta
##ono
##pasapa
sao
sar
llamkay
##esco
tapu
unqa
unqu
mayt
kaqman
nawsa
lamar
wikipidiyaqa
james
huchan
unchawniyki
##mbre
intichawwan
qhuya
kuyuq
taytay
jinata
qil
kamayuqnin
1995
atiyninta
1962
purus
nisqanman
1929
##bir
yanapakuy
interna
amerika
paulo
grego
loren
milagro
kʼacha
67
95
amana
lus
##up
##it
##iz
##iti
##ed
##flores
kala
kara
waral
hukmanta
##turi
kiru
kitara
sacha
##chayqa
colon
watapiqa
##chilla
hinaqtinmi
kawpay
rupha
paykunaq
urqun
##ales
kawsanqa
##usapa
rikuri
chinkay
chaskiy
hanaqpacha
rom
unchaykunapi
purimuq
usqhay
##isapa
qipa
qhawaspa
moys
italyapi
jean
hinantin
cordo
##poli
uju
buena
##psis
qanchisnintin
quyllurchawwan
huwanpa
##portal
chinchiru
george
barbara
aqta
bos
utura
vin
##syun
##yin
##eq
##kuyu
##tpa
##fia
##bol
##paka
##kunahina
kachay
##chaku
mala
##kaw
sira
kayku
kaytaqa
chayan
##chirqanku
distritukuna
yachachi
quchas
aswanmi
##doza
ayllupi
##landya
ariq
wawakunapa
unchaykuna
qillqaqsi
qiris
1999
1987
morales
##neq
qarana
1952
churinta
1936
waqaychana
chhay
mikhunata
pukllaykama
lluqsiy
##dencia
huchha
reserva
miraflores
atipachawwan
nasyunkuna
mendoza
hamawt
susyalista
pushak
##jarro
pueblo
sunaytas
hanllalli
samuel
aku
arqan
aja
egi
mt
piq
qul
svg
uchun
var
##siq
##mpay
##ʼan
##bin
main
##qanmanta
##kiku
hapi
##hama
pikunachus
anqapiqa
ayq
manakuy
qapaq
maypipas
pachataq
sandia
##payan
aqha
wikimedia
michiq
tumpa
rimaqa
katiguriyapiqa
wasikunapi
kikiy
espana
escu
ukh
ukyan
##kunapaqqa
wakmanta
kuya
pachapipas
balli
kasqankuta
##kuspan
1997
1940
pachakmanta
1968
kamachiyta
panaykuna
1925
waqaycha
qhelli
jehovamanta
ruraykamay
##doro
patron
oskar
campo
igle
##dalena
ikrasqakuna
##eiro
uychichawwan
louis
pitumarka
atawallpa
69
79
awi
agu
hero
kb
ota
ris
tunku
vas
##uda
##ds
##cina
##tl
##ayka
##lax
##papas
##kusaq
##llalla
##llaway
##rikuy
llaqtawan
##ukunan
paqu
runamasin
##tural
chaytaq
chaykunaqa
ayqi
##hil
wankani
takina
unesco
rika
##chikpas
paykunawan
kamasqan
liber
amaw
kawsasqan
##ted
##kuqqa
jatu
willasqan
hunun
##peqa
suntu
punuy
nini
estu
yupaycha
mikhunku
wawata
ransis
anchayniyki
atinki
wallaqa
1937
senorpa
1917
runasta
auto
phutuy
watiqaqkuna
turkiya
iqisqa
reqsin
quijarro
askachawwan
##banez
zamora
suchuq
centro
riqsinchik
hawka
magdalena
##thiyup
##barra
kayampi
nicolas
khuruq
wamink
800
97
atam
gio
iwan
impa
ibanez
ken
mb
poq
umanta
ullantay
##sispa
##ner
##mento
##tel
##ves
##unda
kamana
##mal
##tiq
chhu
##kuchkan
mapu
hukchan
simikunata
chayanta
ricardo
##insuyu
suticha
##kuyninta
hatunmi
wichay
urq
urmay
laqha
rawra
##cali
##teo
hayu
rimaspa
kunantaq
musi
caba
juj
warmip
ayacu
##sunkichis
viii
atina
atisqan
kunsi
robert
ruraqqa
ruraqkuna
suyt
anchayta
anchaynin
##zacion
mitru
1948
1944
##yunkuna
licencia
1958
1959
mexi
dyusmanta
1914
wasinpi
wasinman
joa
andre
yachachiqkuna
hurwat
serv
##ford
ajinamanta
cristiano
esteb
phinyi
tiqsi
puchukarqan
moysespa
pukllaykamachiq
apas
akunap
blan
eu
hus
killka
luq
oc
qsh
we
##oqta
##ymanta
##dina
##eta
##gri
##ич
##qalla
##unta
##miento
llat
llakiy
##llayki
##rat
##wasun
silanda
runamanta
yapay
yatana
yallina
rijch
quz
saks
pirwa
##ospa
wank
##chishka
rikunki
hinalla
hinatam
hinaqtin
kawpaqpas
paqariy
imataq
wicha
nitaj
diego
dimuk
amataq
amachana
wikipidiyap
##mpana
hutk
juana
unchawniy
mikuy
##munku
timpu
warmipas
sinto
uqsha
ikwadurpa
llant
anchayniy
utku
uspi
qatiy
sebas
guerra
pampapi
runasimita
1950
##berg
mine
##mushan
1920
qayllay
##psyun
teqsi
bibliaqa
rusu
japʼ
willakuykunata
willaniqip
florida
tampupata
felipe
world
estebanta
qshks
allaqta
agos
gas
hebre
irisqa
ке
##ruqucha
##gul
##cra
##blu
##laq
##kunakama
kata
##waka
anqanku
##kichej
inkina
quchun
##kunatas
##erno
##maya
##mondi
pachas
##chikpi
##chikmi
tuka
##rqachu
##wiri
uyay
##kuqmi
jampi
huchay
rikuway
wasita
150
175
177
sutinqa
uqunqa
yakuchaq
mut
prome
anchaymanta
usus
nesqa
qhawasqa
waqra
munanki
carmen
qispisqa
gubir
phran
qaran
1965
1966
1967
1960
qullpa
purispa
aqasqa
paqariq
qayna
bene
tantanakuynin
kamarisqam
isaias
charles
thak
dumin
thuni
awqanakuy
yawatisuyu
jacob
moises
willkanuta
philipinakuna
ballivian
tunkurawa
ullantaytampu
phinyimpi
кеч
uqunqati
84
by
khin
qasa
ron
umay
##ua
##uth
##ayqa
##inta
##iso
##yap
##rik
wash
##waki
mak
madi
machaqa
##kakuna
##karay
##kasu
##paqha
runapa
##wanka
##onqa
##chupa
saw
##siyapi
pruwinsyakuna
kanchis
cocha
asna
wanta
mayor
allma
sanancha
##panpa
tuktun
allinchay
##llanta
##llanku
jaqay
wayu
haya
kunanpacha
##chkaspa
kutichi
##chunchu
##mbia
##qaysu
willia
munarqan
titu
157
##kunannaq
sinur
##gota
##kuspataq
jesusmi
##kunamanmi
suyuyuq
uywap
kapchiq
waranqaysu
atinmanchu
yawrin
siminta
1953
##spanku
poe
1938
wasan
kaspaqa
waqaychasqa
janeiro
qhechwa
ukumari
aqumayu
runayuq
irqi
north
##ington
qallupi
qallawap
muyun
onqoy
afrikapi
illanchaykuq
kunsipsyun
sebastian
##paqhawana
agus
bre
fla
pn
van
vera
##emi
##kwa
##qch
##qmanta
##fu
##ankuna
##qara
##unal
##pil
llakisqa
##yaku
##llapuni
##raj
##kimuq
##onta
quin
qupaqhawana
##kunka
pil
##entes
manawi
##are
asin
sutiwan
qhatu
##chisaq
##kuywan
napur
ichapas
rimaykunam
nispaqa
kawsana
turu
tupuy
marsu
chil
chile
##cara
##tein
jawa
rurarqan
##luma
tikra
kawsaymanta
puncha
##chkanki
argue
##old
kusiy
sutinpi
unchaymi
nispan
qhispi
chull
##ther
1971
kashaspa
##kusqayki
qoy
qori
1956
pinyin
1913
pusay
llakta
350
##layu
chakas
surq
winisuylapi
plaza
adj
augusto
hampina
rawrana
wayllukuy
gale
qiwuna
chumpiwillka
sullk
rakiqunaqa
enrique
giovan
77
edi
gana
iraw
kla
pina
qusqa
uran
umu
umuy
##oa
##spi
##udad
##ila
##huy
##tukuy
kati
llamiy
wallqa
##rati
##usqan
haqay
hukkunataq
##ninpas
##onel
yach
suri
indu
watasqa
##taqu
##aran
watapimanta
wanay
nace
hinaptinmi
##puma
kamarirqan
##mpaj
puklla
dif
yachaymi
mayuman
##tem
ayllukuna
rimarqanku
rikukun
urqukunapi
capi
chinkan
alej
tarma
ikray
qankunapas
antaman
escri
chask
yanapaq
##shpa
##shanku
sutinchasqa
wanuchirqan
muju
ransiyapi
kasqanmanta
tukusqa
net
qhawaq
atiyta
##anqati
qarq
##aykupaq
atalaya
##kota
hamurqan
qunqa
griguryu
lluqsin
rioja
perez
perdon
suyunpi
##llawanchu
##paksi
chukcha
jordan
bautista
michael
asunsyun
kutupaksi
wamra
huanca
sutʼin
munaspaykiqa
wikiliwrukuna
cordoba
washington
napuruna
93
aqana
iyuq
iwri
misi
pl
rusa
shan
siki
tran
um
uqi
ullun
uficial
##au
##rqun
##pul
##jan
##ον
##уа
##anpaj
##qas
##unmi
##tarika
##ayu
kari
##masi
##kuran
##llap
##usha
##kata
kayhina
hak
hamusqa
yachana
sucre
##iyoq
chaypaq
llamkana
pie
qillqaqa
##tinkimuq
kans
corin
asanka
##lit
qhawarispa
watapikama
##ast
mayo
isanka
##chikunan
paypaq
widyu
yachachikuy
yachayniyoq
aswanqa
tumas
chiqaq
yuma
munisipyum
judea
unchawmanta
timo
152
##ptinpas
kustarika
176
musuqmanta
churu
uywakunapas
uskiy
nanpi
meta
hampiq
1931
apuwasin
chayamun
ahinapin
wasinta
unuta
ciudad
1901
kartul
wisk
porto
hech
hernan
chaqllisinchipi
exo
fuji
lukana
nasyunkunap
chachapuy
samk
gisqatar
paqarisqanmanta
phaxsi
khiniya
giovanni
apuwasinyuq
83
ila
ibarra
nikun
otaq
qaya
spa
##ok
##ski
##gna
##cuna
##huk
##qur
##vista
##bla
##anos
##tachus
##pachan
##kunachu
kausa
kamri
##ric
##riku
llaqtakunam
##rap
makiy
padre
ani
##ninkunam
##onso
yam
yachasqa
ing
##ulgar
aym
##esis
qillqapi
##llapis
##tino
sutiyoq
tapurqan
lluy
##llanmi
rimayqa
tukuyta
milan
marq
raqay
rakisqa
##chani
rikuchiy
kawsachkan
cacer
##chunka
unchawnin
awr
ikllu
##ikacha
yupaychay
sinti
##kunapaqmi
wawakunata
yakuwan
147
astawanqa
inkawi
##vez
pusaqniyuq
anchayqa
kantarawi
jinamanta
kallpay
yuyaycha
munanku
1943
yachaqmi
kasharqan
phis
1957
dyusta
casa
salwadur
elena
##ninkupi
##shaqtin
johan
imaraykutaq
juntʼa
sayaq
##puran
campos
wakamayu
kawsarimp
august
alex
rumanya
iqiptu
uwatana
pidru
pʼun
khankiq
orellana
kampiuna
кечуа
png
iwriyu
asankaru
caceres
87
91
achinchik
bay
dar
euro
elisa
iki
iraq
isaq
kol
luya
sto
uyu
##em
##ges
##khu
##pti
##zu
##anza
##uyay
##uyki
##ticia
##llaraq
watu
maw
##kapun
antinpi
runasqa
hamuspa
##iqin
##illanta
sullu
##paschu
inchasqa
riwi
##chaynu
##eng
##arez
simipipas
kanchay
cora
##hire
##kuyman
ismu
distritupiqa
hinatan
##ciencia
yachachispa
##nataq
kuta
mayukunapi
##llanqa
yupana
##mut
judas
##vie
yanapas
yuyan
##ley
##yanmi
wanuchiy
##kunamanpas
inkakuna
##vera
kawsaqkuna
bata
killaqullu
yuyayniyuq
watamantapacha
awqaqkuna
caste
1927
1919
takiqsi
teo
hoqa
inuwa
cielo
reyes
##wintu
##ykichista
murun
fernandez
khuyapaya
graci
zaca
kulunya
unquq
venez
kaymantinkimuq
index
barranca
impapura
saksay
86
away
achiy
bro
diya
fray
impu
kuri
mol
ori
sch
von
xx
ze
##lca
##id
##nka
##eo
##ctor
##pra
##wayuq
##wpu
##fan
##ρα
##pichu
##tierre
##llen
##rikuq
##qtaqta
##ware
ankunapi
kayninmi
##sqam
chaypis
rip
rios
##kunana
##eso
sutiman
tala
tapuna
allpan
kawpaq
kaqkunamanta
mungul
buliw
yupasqa
rikurqan
anchatam
rej
qallarisqan
cata
puwpu
atirqan
tiwana
warmita
##muqtin
chakran
kuntinpi
parkim
suyunchik
prover
anchaypi
##meral
rimanakuynin
gutierre
yachaqpas
##uyuqmi
php
arhintinap
imaynataq
coronel
noqamanta
kurak
huchasapa
pisqukunam
1909
karl
phiruru
ankalli
espiritun
manaraqmi
kausayta
##roni
yachachisqanmanta
fede
teresa
yuyari
norte
waqyaspa
davidpa
qellqa
warmakuna
german
cuerpon
palabran
qhepanta
muksichaq
tecni
reqsisqa
alfredo
egipto
libertad
proverbi
92
achin
bin
dor
ihi
lc
mej
uri
vol
wnka
yuri
##upi
##ye
##dik
##gin
##gena
##ppas
##tto
##bul
##andro
##mael
##rikuspa
llaqtacha
mam
##kamun
kaypiqa
chaytan
inchaq
salo
sarun
##sio
##sion
aypi
aymanta
colu
##ashan
##kuyqa
##chim
##chiqta
mayqan
deu
islandya
##chikpa
##chikunku
llaqtanta
##kayta
wien
yachaqa
##wira
ratu
parque
apun
jesuk
##kichista
antapampa
escal
##kunanka
##sunchis
viuda
markapuma
uqha
##tajri
akllan
utqaylla
sapara
maska
jinalla
250
pawqartampu
atinmi
joseph
contran
1972
ukhumanta
qulluy
ruwaykunata
1933
1922
manchakuspa
kanar
montes
wakichisqa
pisqukuna
1908
##winu
ruwasqanta
millp
qawasqa
sirbya
cristobal
hisp
partidupi
jesucristoq
##kaskasu
napaykuy
merce
qhelqasqa
gonzalez
nueva
educacion
elias
qallarinakaskasu
lorenzo
##laxia
hurwatsuyu
minedu
agosto
buliwyanu
gutierrez
markapumaqucha
qallarinakaskasutisuyu
cel
ele
gor
glo
jon
khun
lis
miy
och
pins
sisi
tr
upi
wol
##ac
##niki
##ryu
##ker
##tti
##tru
##tte
##trun
##ville
##ев
##kunaka
##uyus
##mia
kami
kapu
##richin
pau
ananpaq
habana
##wanchis
##inam
##illi
sup
##rqanki
sak
sajra
##sias
##ure
kananku
##uria
copa
askaq
hawapi
rikunchik
ismael
##ord
##eld
kuch
liw
yachaykunata
lluk
lloj
uyuni
apunchis
huqa
hudyu
tiks
##raykum
kawsasqa
caja
phaway
##hani
itiy
munaspaqa
llaqtapmi
151
sayan
sinqa
sinch
##kuspaqa
##kunawanpas
wanuchiq
##lismu
mananan
uywasqa
##hou
usu
##tional
##rinapaq
##mori
qitina
chaypim
##kurqani
qispichiq
phinsuyu
wallqan
##kusqanrayku
##kusqankuta
cuen
runapura
churinqa
allichay
##ficio
munayninta
qayllanpi
mikhunapaq
awsanqati
chiklayu
kachkaspa
rinri
patsa
afgan
toro
cheqaqta
termino
illims
nawpaqtaqa
asiru
chinchipi
yachakuqkunapa
indepen
pakistan
abraham
satipu
saphin
camacho
thomas
nillarqantaqmi
ayacucho
uqshapampa
madidi
alejandro
aca
cle
hon
imanta
lun
ok
shun
siste
ukuna
west
yur
zu
##ss
##ete
##erio
##cla
##cto
##pos
##ικ
##anay
##tataj
##pia
##pakuq
kali
##llik
##manchus
##ikar
paga
pampas
anki
##mantapis
kichasqa
ripurqan
qupa
qurani
sacri
anqap
aychan
ayqe
qillqamanta
qillqakunata
qillqasunchik
##hiya
##lidad
nata
##tunya
pachapas
##chikmanta
chavez
yachachikuq
##sqanku
niwa
##riynin
wayllay
chancha
willakun
real
arte
almay
suyukunapas
tibet
warmim
kuntis
wanuchisqa
168
uywakunata
##ling
rimaqnin
chawin
wakintaq
atinku
patallaqta
rumiyasqa
pampachay
ukhuman
##kusqanmanta
kamachiykuna
allicha
dyuspaq
1932
genesis
barto
wasiy
soqta
kitillipiqa
yaykun
ruwanku
ukupi
machupi
1904
suyunmi
kachkaptin
tusuq
pantasqa
yachaywasipi
yachaywasikunapi
1844
garci
torres
##iqui
urayka
apaykachana
##ologia
mariano
sinago
onqosqa
apocali
matias
kusisamiyoq
pariwanaqucha
gregorio
corinti
proverbios
ihiptu
aba
bini
evo
gusta
irqan
nillan
ob
ox
pos
st
tis
tos
uic
ye
##oma
##yon
##dero
##gor
##cti
##ptiy
##wn
##wer
##qkuna
##lao
##pallqa
##chaqta
##chakunam
##llak
##llarqa
##llatam
llaqtayoq
machiq
pais
palo
sig
sichu
nisqataq
nisqatapas
hat
##one
sullana
kilu
kashanku
saman
pirqan
pipis
##sita
manakun
##hia
nataq
qaras
chalan
202
hatunkaray
santos
imakunatapas
yachats
niraq
##rey
##roel
mayupi
##llanan
yurap
##mpuni
hayka
haykuspa
##kunapta
##chusuma
iskaychay
sunin
repara
anafi
juez
##vich
##villa
tiw
156
kusikun
kunris
uqya
saqe
km2
nanu
kallpasapa
1988
kuyuchina
chaypitaq
arata
qillqayta
##uyuqkunapaq
pampacha
khuska
wankapampa
1934
nakʼa
kaspapas
kachamusqa
iniypi
pedroqa
kaptinpas
job
1906
llimphisqan
1899
mallkiqpa
451
oscar
shuti
america
yarqasqa
tunari
pantaychu
listritu
poly
vargas
iglesia
dimukra
william
arguedas
timoteo
fujimori
batallas
tiwanaku
##diktu
kuntisuyus
apocalipsis
binidiktu
uicn
machiqinqa
ayuq
akuy
akunan
burin
eti
ichiy
jana
jura
janaq
kon
nanta
oro
she
thay
uwi
##sy
##sman
##sana
##muna
##mor
##gla
##tsa
##bor
##antin
##qam
##unay
##piyu
##pal
##llpu
##kuchi
maqta
##kara
pati
siku
nisqatam
simitapas
mamallakta
quis
llamka
##eni
##enqa
##ardia
##hili
qhatuna
##chispi
tapurqanku
##sal
demo
##chikman
##cie
##kanki
tuma
uyun
yurakunata
##dap
wikipidiyapi
raul
radio
wayana
apra
##dium
##chinan
kawsayqa
kunanmi
hunuy
##kichispas
pub
ikran
munakun
puquynin
kikillan
tian
warmiwan
qusqupi
atispa
wanuchi
##ykipi
163
##gara
nisunman
taripasqan
130
chullpa
ordo
puriri
llaqtakunapa
tukukuy
alimanruna
kamayuqkuna
pikkin
union
pascua
kashaq
aranwa
cuida
qullana
panu
hinallataqsi
media
kasqaku
dyusmi
paqarirqan
castro
salinas
hunup
frank
1911
bella
hir
noqawan
wisnu
hurqun
valdi
##ologi
1872
##purqa
yachachisqankunata
##pusqan
umirqucha
taytanchis
miraynin
jayu
waqachinam
banla
churiy
rapra
qallarirqa
kausaypi
germanu
pillpin
testig
kusituymi
wawqin
wawqen
wayaqacha
ruqyay
awankay
grande
tiksimuyup
bernardo
dansuyu
##mburg
##wakya
gobierno
escuela
amawta
agustin
inchaqkunapta
burinkin
bol
day
den
epis
io
risha
stan
urani
uvas
xvi
##sninta
##diyu
##munanpaq
##gran
##greso
##cte
##kri
##ches
##mio
##mil
##milla
katis
kachkay
##chamanta
##lly
##lliy
##ller
##llaman
##llatapas
llaqtakunata
pap
anmi
sip
siwk
kaykunaqa
runasi
haku
##wantaq
##tuma
inta
infec
inneq
rir
pitapas
manachus
##tinku
kanmanchu
##quin
cota
cole
umawa
##tano
unch
unayta
qataq
maynas
##chasqam
islaw
##chikkuna
imamanta
##niyu
yachaqaq
yachatsi
yachayninta
allinpaq
rimaykunata
mich
rahu
##chananpaq
##kamataq
jara
parra
##colo
rimarqan
huh
puquna
kitipiqa
juz
##mbay
alva
willayta
qillqasqam
esmeral
##video
kikinta
imaykana
mikhunan
markam
wanuchispa
##ykimanta
##hinan
yakuma
nawpagradupi
kasqanku
##ward
ananiya
sevilla
##rald
##niqta
atinman
mox
paykunataqa
1935
unquymi
sober
qharipas
1910
iwrupiyu
fifa
kananmi
puchuk
valencia
maqanakuypi
##cales
torre
##paykichisqa
llumpapi
busch
harry
waqllisqa
ilik
qelqan
nawpaqenpi
montevideo
villarroel
##dolfo
urquniq
elisabet
saksaywaman
salomon
chanchamayu
taripasqankuna
700
arika
aga
agua
gru
iqa
juq
nay
oa
quq
ts
taya
tanqa
##st
##ykuq
##ire
##gana
##tle
##vis
##jos
##bay
##μα
katt
##lles
##llos
##qtapas
llaqtakunaman
##kaman
##kachaq
pachi
pallasqa
anqan
runataqa
runakunatapas
yallin
sul
super
##pash
inga
saqa
ayniyuq
ayninku
qillqaspa
manallataq
##arin
##erpa
unnaqa
##kuymi
##kuymanta
nam
isqu
imapi
manda
mantapas
##rea
munchen
mil
mitu
tutura
chimu
##cota
diospi
kawsayniyuq
kutichin
cami
##ming
phawa
##risha
antar
##muni
perio
yupaymi
warmiy
warmikunata
nisqapiqa
yanaqucha
mikhuspa
172
virus
uqhu
akna
maskay
kallpayuq
qhawarin
carta
atiyniyoj
apamusqa
niyki
purun
nisqanmanjina
##fica
1926
alimanyap
muyupampa
joan
rurasqanmi
mont
##waqchis
jallpʼa
illaykuna
watikanu
1898
disci
derecho
tawna
tiempon
morona
warminta
maranon
kasukuq
iyar
nunuwa
##jesus
geoportal
sillwi
pikillaqta
kalalit
poqo
pʼunchay
mejia
jesukristoq
escale
sacrificio
anafilaxia
janaj
runasimin
unchul
2n
94
achisqan
cun
cin
et
epi
gro
len
miyu
oqha
sel
urayku
yi
yuyu
##ola
##ud
##ipa
##iro
##rukama
##gina
##ct
##koq
##kikunan
##qen
##vel
##mad
llajta
##ticos
##chari
##llayuq
##kupa
llaqtapa
##ikana
##raqa
##racion
##ruta
ankuna
anchana
simiwan
simikunamanta
##nina
##ninkunamanta
yachanapaq
indun
kir
ripuy
watakamam
##simbur
##tinta
##tinpa
##ques
asta
wanunan
##kuya
qarawi
maymanta
##chasqachu
rikina
wiksan
ruf
nawikar
kut
lata
lichi
mundi
mundu
llin
##llano
##wicha
rai
rato
waychu
apana
##chinankupaq
huchusuma
jesu
qallaw
cala
unchawpa
qankunapaq
munarqa
timu
158
##kunanchikpaq
singa
arimuy
roga
markap
markapata
sumak
chaymantas
musuqchasqa
inkap
##toni
##cep
killaqa
##tervo
##pachapi
llullu
leo
leey
##simipi
contribu
phista
warayu
##kusqay
cutervo
kamachikusqan
##spanmi
wankas
pop
##bil
willkamayu
buh
yayan
jehovata
1916
bear
##korqanku
yunkuyu
allapata
##dong
##llamk
##fagas
qhipagradupi
vale
##mente
tutayaq
1895
rinku
yachachisqankunaqa
millma
##tenan
##kumani
pumapampa
awasqa
takya
kunkapaqmi
kunkawaki
hamunqa
cheqaqtan
offi
isqunniyuq
luksimbur
rakinmi
rawray
pachakutiy
entienden
sayarispa
cheqn
antofagas
chimlasay
satanas
frie
qaranawi
utkupampa
phransis
duminikana
asinda
galeras
kartulsuyu
chachapuyas
afgansuyu
bartolo
sinagoga
soberano
nawikaruy
antofagasta
amb
apasqa
adan
brun
bulgar
eus
elio
fal
gla
mes
nm
nuka
niko
pres
sy
sp
tren
usi
##eda
##rca
##phu
##tusqa
##zas
##qaya
##laho
kapi
##tiz
##llaymi
chong
##llar
##rial
##ukilla
machaq
##kali
##kamuy
anay
nisqayuq
kaymantapacha
##mantachu
simiyuq
##hasqa
yakun
suku
chayllapi
chayaspa
ingen
sat
pir
pizar
picchu
aykunata
##erte
cob
##tantin
##ash
1900
uncha
unqun
##chikuspa
mayk
maypim
islay
santi
paya
runakunas
##paymi
imapaq
aqninkuna
kamarqan
mani
yachachirqan
kutaka
quchakunapi
dip
diez
mundo
rimaykunamanta
##wil
rapa
##cata
jawira
parlan
##dico
musiyu
repa
anaw
juanqa
unchawkama
atipana
espina
esper
yupayqa
chaskiq
yanama
yuyaspa
bote
##tanam
169
146
taripan
##ciones
piruwpipas
##the
levi
segun
arawi
enqa
guz
cree
pampaman
qarqu
qarqo
khish
qorqan
##chejpaj
cheqan
metro
uchpa
minu
potter
unquyta
soft
willaykuna
hansuyu
paraqas
##isqanta
maqanakuyta
chhuka
rurasqanpa
##waqniy
wakichi
##drich
karka
rikuyta
chinkasqa
espirituq
wawanta
ikrasqan
365
isaac
##ciso
hununakuynin
##kusunchis
harawikuna
ministerio
bustillo
asyapipas
kinrayninpi
warak
650
caracas
##mripi
susyalismu
##aroa
hatariy
qhapaqsuyun
atlantiku
texas
piqpa
mexico
sintomas
quchuntin
milano
europa
venezia
etique
valdivia
katisismu
moxos
singapur
kutakachi
1n
dos
fun
hol
iku
liy
niya
quni
tro
##yayta
##huna
##ky
##ptiyki
##tla
##tya
##vero
##jer
##br
##στ
##chqa
##isun
##kunallan
##uyta
kapita
##maman
##challan
##chard
##llayta
##rita
##rirqanku
wamaq
##ukunku
##rato
##use
malla
##kari
pad
pakta
ang
nisqas
nisqapaq
##kil
runawan
hukchay
##ninpiqa
##hata
sub
suarez
inqa
sawu
piti
##urqu
aysa
##esal
##aruna
cop
asar
tai
taqi
tatas
mayukilla
apuyaya
pachakunapi
##chikunankupaq
distritup
chapari
rupa
##els
##huan
##alberto
lak
lamas
allinlla
chipaya
jaruma
##chinmi
humb
rikuchiq
urquqa
pununa
##chkani
archi
qanwan
qankunawan
##rinkuna
##raqo
kusik
##mpiyu
takiykuna
##panapaq
roberto
yalapipas
wanuchiyta
nish
tiyarqan
astawanpis
suyruqucha
taytayku
kawsaqkunap
anchayninta
chuta
usiyan
luh
qichuy
lee
gualberto
##cula
rumipi
juanpa
abel
abaroa
siminmi
##ood
##phis
##masiy
dyuspi
allintapuni
senorninchis
##ninkumanta
yaykuy
qhepata
1912
ruruchiq
temp
horas
hamuchun
akllaspa
shipi
patma
awahun
##ventura
waqachinakuna
##kuychischu
mayqinkunachus
derechos
##burn
putumayu
##ght
chachakumani
pilato
imira
salaman
narciso
romanos
1551
institu
##thanu
prince
herodes
wallqanqan
oklaho
corintios
pillpintu
iliktrun
grupo
yallinraq
discipul
indunisya
timuthiyu
bulgarya
eliodoro
sukumpiyu
software
etiquetas
sawud
oklahoma
cay
duran
espa
iwa
ilu
kisa
musa
oqo
tʼa
umayuq
wiqi
##ario
##stein
##ukuna
##uwa
##yayuq
##ie
##ichaqa
##ctus
##hol
##qoq
##fer
##fisya
##bl
##ου
##ολ
##cht
##ishi
llaj
##llcha
christi
##llakuna
##mann
llaqtas
wauq
##wataqa
mash
##kawa
patri
pasaq
runallap
hara
##ninpaq
##hara
##haspa
##tula
supi
chaykunamanta
chaywanmi
ripun
##kunqaku
kasma
##sitan
anqara
ayu
##llapim
##uripi
coro
ask
##tanka
wanki
wanunanpaq
##mayka
##chispas
tapusqa
unga
##mond
depor
##yupi
kaqniyuq
imasta
kamachis
llaqtaniq
wipha
kuwa
##rera
laqu
dibu
amaraka
##wir
miran
mary
marcel
##data
##chanankupaq
##kuqkunata
warku
kutichirqan
wasim
##kunamantawan
##hinam
pukyukuna
phawaq
alonso
qanmi
munarqanku
##munismo
##ikama
ukya
yupaychaq
novi
##aykita
mikhusqa
mikhukun
video
kunturi
bogota
chaymantapacha
unchaykunapin
riqyunmi
mula
pusaqnin
##merica
uywaq
##kuspanku
##chisqanta
semana
guana
risirwakuna
atiyninwan
##kusqanku
qosqa
nisqankama
datem
##field
munayn
south
willkawaman
fransis
kacharqan
mancharisqa
muyup
gabri
##kson
##llatak
yachani
kanapaq
noqata
ayllunkuna
docu
fiesta
auton
1905
llikapi
##grama
qhipaman
llakwash
1892
1876
imaymanata
partidun
##ishqa
isabel
iquq
shuy
millayta
##muspataq
1868
charkas
supayqa
illuta
nuqanchis
tiempopi
shuwar
shumaq
ameri
##onica
qallarirqanku
crup
komunismo
rakhu
sunquyuq
malta
paqllun
iqtayniy
mancharikuychu
killikacha
yuyarina
##senor
kriyiq
iraqi
qasik
jackson
chimlasayta
amerikaq
qirisan
yallinakuy
zacarias
tiksisqan
esmeraldas
mundial
bearn
friedrich
espinar
jere
kurin
my
py
stu
tole
tʼu
zh
##oc
##ux
##yec
##iru
##ide
##dul
##mosa
##cs
##cro
##hel
##pol
##pburn
##thi
##vos
##jillo
##unka
##pika
katu
kapurqan
##chakunata
##llisqa
##kul
##kullan
##rima
##rimuy
##rillo
##mansi
llaqtataqa
waqan
##rasqa
##rupa
machasqa
makus
pallan
papil
##kim
kaypim
runaspa
haman
##ninrayku
##illir
richard
##kunkichu
kasun
##siden
pruwinsyaqa
##qulla
qhapa
qhatuq
watapitaq
wantar
tariy
##tunu
isqon
hinapas
chaqay
paytaqa
##payay
imatan
image
aqpa
qhapaqnin
qhapaqkunap
manqus
yachachinku
##sqankuta
nieto
lagos
lajas
yachaypi
allinkunata
mayukunap
tukuypa
uyayuq
yurakunaqa
##chanchik
jall
wayanay
ayllumanta
diosniyki
kawsaykuna
kawsayman
##ankupaj
##peru
rein
kutita
wasimanta
awchu
##risunchik
##rinqa
##mund
warmikunapas
##kunanqa
kushka
sinku
102
174
vida
pulitikum
kunkan
karupi
chaymantataqmi
wawakunaqa
wawakunawan
wawakunapaq
161
muchus
mulli
suysa
bila
##tone
anchayman
##tho
mitrukama
##aykipaqqa
##warina
nece
qimis
munanmi
arab
sunturpa
atiywan
mora
paska
phus
sinchiyasqa
kamachichisqa
wallam
llaqtakunapipas
willaykunata
##onato
waqaychay
chayaq
hich
##sharqanku
qanchisniyuq
quyllurkuna
fitz
planta
challwaq
qunchu
ashka
rikhur
rakikuna
##quipa
hepburn
1871
wamanim
##ganda
##aykichista
derechun
1821
makinta
yachaywasikuna
thaqu
campero
sirya
munasqanman
last
fut
qespichisqa
busna
yanapayta
pusapunam
wankurina
pachaykamaypi
khipu
achuqalla
qurakunam
cose
bernard
virgen
pidrup
chaqnamuy
bongara
belen
simillapim
wamachuku
##kawsay
estudi
plurina
kansillir
graciasta
wolf
independencia
sistema
abad
oxford
chalanpi
yachatsiki
quispe
qarawili
rufino
raimondi
pizarro
timuthiyupaq
amarakaeri
gabriel
makusani
aus
achik
bena
cy
frias
hana
ipay
ipis
itur
ithiyup
qes
qor
suk
sispa
syn
tele
→muyu
##ly
##lana
##aj
##ama
##ath
##snin
##sina
##nor
##dena
##rena
##cor
##caya
##km
##tta
##qhi
##zhou
##fen
##bus
##blin
##boro
##cher
##ayan
##piya
kamb
kajta
##maria
llalla
##tit
chhi
chʼa
##kucha
##rius
##rios
##raqay
##warqanku
##rul
mada
maruku
paca
paqucha
antisuyu
simp
nisqamantam
##kiwan
kaypa
kaychis
runaka
runataq
simiy
simitaqa
##ony
##hampa
##haqtin
inku
intra
rikuq
rivera
##ule
##kunkichis
##insya
salu
aymi
ayrimana
qillqanku
astika
qhasi
##tanqa
wanurqa
##chismi
hawamanta
qampa
##chij
allillan
isti
chara
rumina
ruiz
##cilia
paykunamanta
runakunapak
imakuna
##wayu
##waychu
aqkunam
##ision
manuripi
wiraqo
yachaqay
yachachina
yachakunapaq
##nataqmi
##ald
quchaman
llus
allinkaqta
mayumanta
##wichu
wikipidiyapaq
##teca
##dora
haynin
##cora
willaspa
hunta
warmis
kawsarqan
##chkanchik
unchawkuna
##mbas
phallcha
alban
ikrana
##rish
##rinanpaq
misa
159
intimanta
saywan
sinta
173
##kunapash
##lepis
chakray
atisqa
wanuchisqan
allpata
160
nisyu
suyuq
bahama
##sey
kachkanku
##rinam
shamayka
uras
yuyaywan
fara
carcel
risirwapi
senora
organi
tawak
hinaspapas
riqsisqan
##mpurqan
tinkuna
##gitis
pisiya
yachachiyta
hampiy
uchukay
paqarimurqa
allintachu
1923
apukuna
##choa
qharip
##llatataq
kanari
republikakunap
mariaqa
hora
##sapam
nuqapas
runasman
phuti
1903
##boa
phir
##illas
huchuy
kamachikuykuna
vaca
qullqita
watiqmanta
lanthanu
turku
##qhayta
1829
450
inicha
##rqanichu
more
moreno
lloqsispa
kulun
ruranakuy
cristoqa
chuki
sipaskuna
university
iniqqa
ajlla
lingu
llaqtaykuq
550
qhepaman
punata
kiskachay
umanpi
qhawariychis
chachakuma
##nasyun
pachakutiq
wayakil
nukanchik
kunankamapas
palamakunam
niranllapa
qhawanakun
entiende
cultura
oveja
qincha
awkikuna
asuykuspa
imanaqtinchus
state
parlaykuna
usqhaylla
hebreos
promete
gubirnasyun
cochabamba
muyuntinpi
marsupi
sutʼincha
trans
kusisamiyoqmi
polylepis
oaxa
contribucion
dipluma
toledo
hamanq
→muyurikuq
apiqa
awar
blo
club
em
fl
hy
hos
jur
kho
n°
qis
qina
ten
tre
trini
utur
ulin
wiya
yuk
##ler
##ad
##sas
##siqu
##uw
##upa
##emb
##cy
##cin
##kra
##pro
##puspa
##pusaq
##wiq
##thu
##bec
##19
##ης
##anmanta
##anwan
##tami
##tale
##inmi
##pipis
kakun
katal
##mata
llasaq
##tiyuq
##tiva
##chapampa
##chakuspa
##kuk
##llarqanku
##rich
##riwa
##richi
llaqtaruna
##ukana
##ukancha
##wasqa
##usay
##usuyu
masa
machina
anhil
sierra
hamunan
##ninnaq
yakuy
yagua
surinam
qurpa
##yuqkunapaq
##tinu
##ers
simipitaq
col
##mayta
tama
tatay
natural
##sallpu
istu
hinapuni
hinaqsi
santan
sansa
##paykichis
##tola
llaqtanchiq
manya
manaykuna
##elpa
tukunanpaq
lachiwa
dil
yachaymanta
yachaysapa
llun
allinya
allinchayta
##rqay
amachay
amapuni
amazon
wayqe
waytara
waysallpu
hayniyuq
chaniyoq
dioswan
rimakuna
musu
musquy
kutiy
kutichiy
##guin
##mbri
phalaq
altar
alvar
awqan
ikraq
qankunan
##rinman
ninki
kikillanta
ped
tim
noel
##raqchu
saywi
sinri
vila
##leo
athina
bob
##eja
wawakunap
yakuqa
nishpa
saqmana
tarikuq
taytacha
lliwta
bio
bir
anchayku
##med
##thuyuqkunapaq
luc
lluta
jinataq
qilla
lei
warani
gui
guang
pampamarka
qarayuq
##kusqaku
khay
cup
niyan
##chejchu
purina
achala
llaqtakunapiqa
yawarta
##posi
1921
qhepayta
quyllurmi
kuraka
hollan
quncha
niqir
##bot
pusasqan
ashtawan
naciones
valen
1896
kausan
##rono
1874
tawantinsuyupi
makinmanta
1849
##kusunchik
qonqa
qonqo
muchuy
giles
wanusqanmanta
##zaro
chikitus
ispanulkuna
ichki
llaqtaymanta
muyuy
waraqu
isidro
marie
yawrim
xiv
hinana
justicia
hillurina
tulluyuq
##ович
chinchaysuyupi
hasp
internacional
international
lusiya
buenaventura
blanca
qhispisqa
alexan
castellano
hirsiqu
bartolome
kurinthuyuqkunapaq
futbol
kambuya
bahamakuna
qhawanakunti
hirsiquwina
900
ais
amp
alan
ace
ampu
achiyta
akunqa
bun
clin
efe
flor
gan
iche
lina
niki
od
plas
pʼa
quna
tsay
ush
uganda
##opi
##shi
##sel
##ef
##rqo
##rero
##cz
##puk
##phan
##tros
##qtiy
##fur
##ор
##ις
##anga
##ung
##aykuta
##inku
##pakuy
##kunari
kaman
llasa
##llqan
##llama
##riri
##rirqa
##rimun
wade
##ukar
map
maxi
##kapi
##kachan
paqtan
paciencia
antis
ancas
nisqakunata
##anam
##anampaq
kaytam
ham
##wanpis
suyukunamanta
##illanku
suce
chaymantan
inuyuq
kiya
wataq
##churi
kasaq
sali
ayra
ayninta
pruwinsyanmi
##taqsi
manaku
manapunin
##liza
umasuyu
umallina
##tanta
##tanku
tam
unchu
distritun
nazar
qaway
qawana
cham
sankay
runakunaka
imapis
##niypi
llaqtanpi
yachachirqa
yachakunchu
kulli
laja
yachaypa
yachaynin
llikan
allintan
amachanapaq
aswantaq
##wila
kawsaspa
chila
##tambo
parana
ruraspa
wayllun
apuq
willakuq
diosnin
diosninchik
hump
hugo
urqukunamanta
reino
kutipi
cate
arispa
argen
##mullaway
##guia
phas
tarpuq
uyarisqa
qankunata
qankunamanta
lliph
atiene
ukru
##ptinchus
puliwya
##kuspalla
##sunki
##muqtinmi
kungu
roger
markapipas
166
##gado
qho
nues
suyk
chakrata
taytayki
##tinapaq
137
purirqan
utus
utishi
tukukuq
tukuchin
lugar
##muyta
wakinkuna
llapanta
llapanmi
chaypitaj
arachiq
entre
creen
phur
senal
qullusqa
pukaqucha
##gica
ruwaykuna
merida
corne
paqarichiy
##chikuyta
apulli
washa
waranqacha
atakama
qharikuna
manchakuy
tantari
yachanichu
bea
churaspa
fili
illino
rurasqanta
sonqowan
##waqchu
rimasqakama
1902
1907
challwakunam
##tados
##grafia
chikan
inlatirrapi
tutapi
puriqlla
##ykichispi
kinwa
kachkarqa
pachakwatap
lanki
##chasqana
qullqakuna
quito
1830
1867
makinpi
moskwa
##forma
jiang
ruruchinap
bantu
1857
iniqkuna
lukaspa
presiden
upalla
trujillo
munasqayki
ipisqa
paqtataq
qolqeta
##kushaqtin
mercado
cristianos
qarikuna
klubmi
jesucristopi
asuncion
frede
atucha
cheqni
achani
xiii
akincha
nuevo
thesal
thasn
rasu
wisaw
isluwakya
unquchiq
eugen
yawatisuyupi
kampiunatukuna
federico
illimsayaq
epistola
alvarado
asarsuyu
mayukillap
documen
autonoma
ruminawi
linares
illinois
thesalon
amu
cristoq
dine
ei
east
gil
ichu
ili
iriy
imayuq
jel
kuriya
les
omer
ollantay
risqa
tʼ
wiq
##lus
##ari
##ster
##yanku
##rsi
##rqu
##ror
##ction
##hmi
##her
##jin
##jchu
##flo
##ankama
##chk
##pampi
##isti
##ishan
llap
##llikun
##llikuy
##yaspa
##rit
##qtam
waqar
##rukuna
maga
mathiyup
##qankuna
sirin
nisqayki
##kira
kaytaq
kayna
hatu
hapun
hawk
##sqata
simitaq
simikunaqa
chayhina
chayraq
mamakuna
kirk
rikuna
##kunankuta
##kunayoq
samb
ayay
aypan
##chayninta
##tini
simipiqa
##qutu
##hikuna
asu
##lid
##lilla
sutita
qhata
wanuka
tambo
##chipa
##chikurqan
rikchaq
ismuy
kaqllataq
paqaqi
imaraykun
aqwa
##puru
kamariy
llaqtanmanta
llaqtancheq
##sqana
nie
kuchu
laru
lagar
pukarani
yachaywanmi
##kanan
##wit
tukuynin
milla
mili
mime
kawsanapaq
marban
chira
uyanta
##dado
ram
##tea
##chanmi
jaen
hayaq
##kunappas
iskayniyoq
tikina
kawsaypa
rikusqan
rei
punkuta
cap
arce
##muwan
judi
puchu
pumaq
unchawniyku
alhi
alkali
tarpun
qankunaman
antallawanchu
atipay
ruwarqan
espe
##vil
uksiy
yupayninqa
intiqa
noqaq
##ptinku
hanaqmi
101
chuqllu
sumaku
yakum
qillqaqpas
kuyllur
programa
chakrapura
inkakunaqa
inkawasi
bagua
bahia
bird
kasqanman
anchayniyku
chuma
usqhayta
nerqanku
##rinaphi
waqyay
unidas
##niykipi
guer
kasharqa
kashapampa
cue
##llapachu
chawpipi
tawamanu
purisqa
panka
tinta
nisqanpi
dyuswan
qayllan
chaqr
franco
frances
kashani
yayay
jehovap
betan
hitl
tiksicha
noqapas
ruwankichis
indigena
firen
ukuku
chhuk
tiyaqkuna
wakichiy
niqirya
##ckhol
pusana
unanchasqa
http
valer
valpara
sunquwan
##loso
##ykuwan
makiya
1875
partido
tawantinsuyup
1826
nunuqkunam
1841
jitpa
tantanakuymi
kallpachasqa
munasqanku
##ique
wanusqan
tunqu
mishika
kaqtinqa
qillqanakuna
illampu
ampatu
kichkasapa
georgia
wuliwiya
free
virgin
antoine
emilio
romulo
qulcha
##aykamullaway
suytukancha
joaquin
qhechwasimipi
chullusqa
escrito
yamt
stockhol
lisboa
thaysuyu
mediawiki
##cepcion
jeremi
ipistula
madagas
phirrinaphi
santander
##pampilla
firenze
valparaiso
stockholm
atun
achiq
akaq
bran
cro
desa
fra
grana
hiki
iw
irin
ichispa
kemp
mura
nonato
oficial
pr
tina
uka
ugel
yuka
##a±
##sn
##swan
##ibo
##dunya
##gay
##gle
##hta
##kt
##pp
##wsi
##wli
##tray
##qmi
##zona
##anpa
##anman
##chwan
##into
##mien
kachu
##mach
chor
llaqtakunapas
##ikiyuq
##wal
##uspi
maka
mario
##kachu
##kachaspa
anj
anda
siles
##kiqa
##paqchu
kaypin
huktaq
##sqalla
##ruwillka
##tumanta
surata
##iyay
intin
inqu
inte
rirqanku
##kunay
##kunchik
##urana
aywiki
qillqam
manachayqa
##ting
##erta
##ermo
##osta
coli
##hima
##chistaq
##chisunki
tapaqa
unku
maylla
maywiy
riktur
isk
iskuy
hinataqmi
icharati
champa
kaqkunapas
rub
##payqa
##payasqan
imapaqpas
aqllay
##puta
qhapaqninsi
yachakuy
quchawan
mayuwan
amacha
nispam
mia
kawsasha
tutay
uywana
raqch
##doval
wayusa
chuntu
chani
rikuchirqan
warnes
cajas
juchayuq
puchun
antamarka
miski
llaqtapura
chunkawata
estre
mamallaqtayuq
171
pulitikumi
atma
atha
unchayqa
unchaynin
unchaykama
nishan
qhish
tiyasqa
##baq
proyec
chakrapi
llankanu
bag
chupan
usha
negro
##moto
##qarispa
luwichu
secur
##ralde
guill
congreso
concepcion
##cum
runasimitam
lomb
runakunataqa
mantaru
chemi
medi
corn
corre
unquyqa
munaylla
pinkuy
senorniy
waskha
butan
budap
##kshire
##llatachu
llimphu
churarqa
hila
##bei
ruwanayki
montana
andes
kananchispaq
cien
yanapakuykuna
##box
##bour
##ikunayuq
phichqa
##grado
nasa
rakirinkuna
portillo
makidunya
wamanipi
1882
1884
1881
1836
yanisha
chakatasqa
##kunqachu
irupana
##port
yorkshire
kallpawan
ruruchinam
##imamani
1854
1856
llampʼu
farin
tunqur
vega
##dalu
uyarichun
watankumanta
prefec
ministrun
yarqay
##munankupaq
qallawam
huaman
##haychis
wayllukuqpas
yanqalla
ampasqa
taraqu
pachakuti
##jasja
muspharqanku
750
naran
shinallatak
##brera
area
arequipa
chillki
wilhel
jacobo
chuquimamani
jacinto
abrahampa
helhasqa
hinaspas
chusun
##ptoco
inini
israelitas
nawiriywasi
apustulkunap
isluwin
chaynulla
michigan
otaval
kanchayllu
talara
mamuriy
toscana
##gory
askhan
wiphala
qasikaypi
##tunumu
iturralde
trinidad
cornelio
thesalonikiyuq
jeljasja
kuyllurkuna
virginia
tapaqari
llankanuku
secure
budapest
thesalonikiyuqkunapaq
aa
aco
awaq
bia
cur
dra
dro
dbr
eqe
idio
krun
qiq
qhin
rina
scri
umana
vel
vista
wiy
zi
##ote
##syu
##shina
##uqa
##ico
##nillay
##mm
##ev
##rta
##rmi
##gru
##tpi
##jardo
##ан
##ин
##ων
##unyapi
##ines
##uyo
##uyt
kallan
kalis
##mapis
##tifi
chika
##kullantaq
##rion
##manmanta
##mantana
waqaq
wallanpi
##ushu
##ruz
mai
mamanta
anchu
##kipas
hamus
##sqachu
simipas
##wananchispaq
##paska
chaywa
chaykunan
##ulin
watas
sawaya
saraya
pikuta
pimanpas
ayqa
aykurqan
##kunatachus
##ensis
manasqa
##erro
kanankuta
##liku
##lico
##chisun
nat
nami
naqch
##chiqa
##chikurqa
maymanpas
##saka
dele
island
champi
chachas
qhipata
sandoval
##payku
##payaspa
imam
##spataq
qhapaqpa
##elos
yacharqa
##hui
##huay
ladis
qhichwata
lie
yachayqa
yachaywan
allinkaq
##llani
##llanes
##wig
uywan
##tepe
##kinchu
chankay
willarqan
willakuyta
##chinki
##chinchay
human
kawsayninmanta
calla
calle
caper
cabrera
##muptin
rimanakuspa
juda
##minta
##mbik
alta
uyariway
uyarirqan
##risun
qanman
raymita
antaykuta
estero
chaskina
nisqapim
imayaymi
jesuswan
sutinmi
viz
127
yalaman
sumajta
##iamas
162
nishu
tiyapuynin
tiyakuq
tiyasha
##tinapi
inkallaqta
basi
bacte
anchayninku
##cef
purikunanchikpaq
lud
llapanku
kamayuqmi
fajardo
munanchu
araran
enero
unicef
carl
carol
kankuman
qaray
ninapi
ninakurqanku
abril
##llapaqa
siminmanta
jisusqa
pachanka
amster
chaninta
paqarichin
pod
podo
dakota
qayllapi
apulliq
barroso
solan
republica
1915
iyka
pedrota
fies
##kunapak
kuraj
juntʼ
wanuymanta
tayhan
qamqa
hurquy
chinkachisqa
kamachikuykunata
sayariy
illaymanta
heath
1879
mikhuqmi
##huahua
##gang
siwil
manchayta
1822
1824
1825
1833
sunaykuna
1865
grau
chakiyuq
samarikuy
##porqa
kunturkanki
banos
##ninchispi
munasqanta
rusiyapi
nunakuna
warminwan
aytucha
rosario
boliviapi
atiparqan
maldona
wankurisqan
larunpi
apaykachay
kiswar
green
naupaq
phaqchakuna
puys
tarapaka
pilawit
clau
vocales
##llarqantaq
edward
ullku
niykichismi
ichilu
britan
ixiamas
politica
tuqti
kankallu
qullqiyuq
waqlliynin
ispillu
##cienci
emilia
laqhayaq
imanaqtintaq
chhayna
musikuq
benedi
yawrinmi
poemas
pukllasqan
cielota
llojsi
ankichiy
machupicchu
nakʼariy
rirpu
periodico
wankasanku
##tenango
guzman
imiratukuna
bilarus
ithiyupya
holland
nazaret
faringitis
prefectura
otavalo
ladislao
caperna
amsterdam
maldonado
ato
achun
aqay
achirqan
agra
ampana
disi
eva
ecu
gl
gnu
gros
hura
iten
ivan
jr
jona
kec
kuki
luna
nik
niyuq
ose
qulu
swa
sco
tel
whi
##lik
##lulu
##sk
##spaq
##ula
##yperu
##diy
##mista
##ek
##rpari
##khi
##puri
##wels
##tr
##tispa
##by
##bina
##annes
##taman
##unas
##pipi
##pac
llasay
##chakunaqa
##kusa
##ridad
##manhina
wawi
walli
##rara
##wachu
mapa
mami
##qanman
##kawri
papas
anch
anth
siti
sillu
nisqataqa
kayniyki
runakay
runakunatam
hasu
similla
##nintapas
##harqan
##hamp
suyuman
##ruwi
yaruwillka
##pasa
mamallak
inchik
kiwicha
ribe
##kunta
##insyun
llamkaq
pim
pierre
ayninchik
ayruma
##chayku
##ende
manapuni
manallataqmi
##tinyu
##hio
##hira
sutiy
sutip
umapi
wanur
qatasqa
##chio
mayun
rikunankupaq
challa
chakiy
suyupitaq
hatunchan
hatunmayu
ruwli
##cias
##ciano
imaptinchus
##waychis
aqkunap
##puwan
llaqtankuna
manka
manyan
##sqanmanta
qhichwaman
libe
munayku
##rqapurqan
rimayninta
rimayninkuna
marco
chilu
yurakunapas
##cala
pardo
##col
willamuy
willakuynin
rimari
##chinman
yuthu
humala
kawsayninkuta
rikukuq
rikuchispa
##chiqucha
musya
ref
revista
qallarispa
cauca
anaq
unchawniyuq
unchawpiqa
##mber
phala
##hanka
uyapura
##risapa
mikha
llimanta
munapayan
ninri
ninkichis
title
tirul
warmimanta
noord
yanata
yanapasqa
##kunanchispaq
##aykichejpaj
ruruyuq
##dela
##demo
104
170
limapi
##suni
vil
umalliqmi
quebec
##turpa
wawakunapas
yakup
149
143
achkaq
rantina
taripana
taripasqa
provi
##pecial
pusaqkuna
anchaymi
chupayuq
utqay
tukuka
user
##muran
leguia
sumaqmi
yuyayman
sea
waqkuna
arawak
enjo
unichiy
##nimpi
atinchik
##qtinqa
qarqon
abi
qoll
qowayku
kamachiyninpi
kimsak
qallariypi
panti
winaspa
achata
##anchikmi
pish
paqarirqaku
munayniyki
churanqa
wask
tansan
chaqra
##choqa
kachamu
qharita
tantakuy
tantachisqa
##ttle
yachanku
yachanchu
illka
kurakan
llaqtamantaqa
sonqolla
##phia
wakichikunankupaq
qunqay
##fera
aqupampilla
sarakuru
kapchiypi
challwam
hinaspanmi
##grad
martinez
chikla
##carrald
kusasqa
1897
1891
ruwasqanku
palawra
1877
warikancha
alawsi
willaniqita
1888
1883
inirupi
1864
kupam
nunuqkuna
iruru
espirituqa
qawarin
##deron
pikchupi
##kusunki
terry
dublin
traba
kaqtinpas
imanaqtinmi
qillqanchik
wiraquchakuna
pillun
qutuqa
pututu
kacharichisqa
balsa
vowels
pruphis
cordero
alfaro
silva
apostoles
romanukunapaq
borja
muyuriqninpi
bautiz
##kunankupaj
qasaq
yuquna
##dolf
qallwa
laqhis
parinaqu
unchawniykichik
yupaycharqanku
cristianosqa
husiy
occi
tukachi
hechos
kutawasi
contranpi
ochukuy
kamirun
cajamarca
cheqaqtapunin
sichura
ioannes
tayaqaqa
lengua
arawikuna
kapitalista
##challanpim
humbold
musambik
katuliku
fitzcarrald
diplumatiku
ancash
magallanes
kempff
estreptoco
bagdad
lombardia
chemillen
pinkuyllu
wilhelm
kalistu
siwilchasqa
itenez
enjoyperu
akay
akunaqa
achinapaq
cura
din
dal
grina
kri
kong
oto
pero
perqa
qusa
qhan
qukun
risqan
tul
ux
ula
uwas
vis
xa
xv
yuska
##lya
##ses
##uj
##yuna
##nus
##dd
##mura
##cun
##kik
##wood
##tisqa
##jkuna
##zano
##bon
##αν
##1k
##مد
##ans
##uno
##tacion
##piru
##miri
##miyu
##ticas
##tiwu
##llon
chʼ
##llado
##llachishka
##rimay
##manda
##waspa
##walu
mauri
maca
maqaq
mamayuq
magal
madre
##kasqa
##kampa
papata
pagan
paruru
anankupaq
sipa
sillp
##paqucha
kayan
kayrayku
kaypacha
haway
##mantas
simikunapi
##nintam
##ondo
yasuni
suɵ
chaytam
chaypipas
ind
inisqan
rikunalla
sarwa
samir
sahara
##sios
ays
aypaq
ayna
##kunatami
##kunatapis
##tintaq
##ares
kanay
##qupi
colos
##lier
qhaq
qhallalla
taba
unqaq
naces
##monte
##sara
allku
sutiyuqmanta
rikchakuna
ispay
istuy
hatunqulla
kaqmi
kaqhina
kaqllam
sankt
imapipas
##tosi
aqninmi
##mpara
##hue
nikuq
niwarqan
rimaymanta
rimaykunaqa
nispataq
tullun
chimbo
chihuahua
uyaykuna
rams
##chanan
jamut
##did
chantapas
##lupi
rimarin
yumbay
huchayuq
##punman
iskaymi
kawsayniyoq
##peg
urqukunam
requ
punus
punkiy
kutim
kutipa
wasiqa
pukyumanta
juchas
unchawniyuqmi
pharsi
alo
alber
awtunumu
qanta
llipt
raymim
atikun
atipan
##ikamanta
mishi
estados
timp
noe
##kunanchik
sayna
##aykipaj
##dera
mikhusqan
jesusmanta
120
121
kunkay
##yang
110
parkiqa
wanuchina
ruraqkunata
##loe
musuqllaqta
allpapiqa
unchayninpi
164
qhis
ranra
rantiy
##pinuta
taripakuq
##tajina
pachapitaq
barat
bilin
##ceo
aktinyu
##line
##warmi
tukupun
winaymarka
killaq
##terono
##muychis
llup
lluchk
qhawasqan
ispanap
sec
segur
inlisyan
waqllin
tiyaykurqan
unidos
united
sunturpi
connor
##anqaku
##qtintaq
arhintinu
mocha
##rasu
kasharqanku
arani
ninasuyu
khuy
abiseo
bibli
##ecas
kamachiypa
kamachiyninpa
hinaspam
chayraykutaq
achachilla
tinkuy
churinmi
churinchus
megan
quyta
allichasqa
paqarichiq
potosi
##musqanta
casos
data
juni
unquykuna
unquywan
hunumanta
tok
##riston
yaykuyta
watakamas
##kuyninqa
yachanki
kanamu
kanampaq
churasqan
hidal
ruraychaqa
takiqkuna
indiana
indigen
kurkup
kurkupi
andina
quntuma
iwrupamanta
yachachiqkunaq
pachantinpi
ikakuna
##qtaqmi
pukllaykunapi
kankichik
hurqu
##face
uchupi
##carpus
wawanpa
wawankuna
perqay
kawsananpaq
1890
makilla
khari
romagna
##ishka
alaba
disp
hununasqa
qelqasqan
imaynatataq
1886
1834
1831
pumaqucha
1862
makinwan
pilichuku
oslo
supaypa
grado
##jua
garan
##ninchikta
hamuni
imayaykunam
cheqas
pulin
samari
samarikuna
madridpi
punchawpi
##ninchista
yuyariy
muchusqa
urasuyupi
munakuywan
trato
universitario
uyarikun
chimpan
layu
##tyle
suyakuy
akllanakuspa
sonqonta
trigo
mikhuyta
rikchasapa
thani
wayllukuqsi
mallkim
aleks
isiboro
diablo
testam
khir
prutun
pachakutinapaq
thunisqa
aylluy
raymondi
lawqa
##ustria
tuyru
soldado
1533
kusisamin
insik
villarrica
chimputi
samiq
parinaquta
colorado
##nejta
hawkalla
serviq
killkatina
##qtaqtaqtaqta
tecnico
deuterono
kalipuy
nillantaqmi
kilugra
uwiha
bellavista
yachatsikunapaq
amboro
esperanza
qarqurqan
archidona
discipulos
christian
marcelino
kunturiri
wolfgang
runakapaq
uturunku
qonqoriyku
efesios
category
militar
alhirya
granada
anjil
krunikamanta
sarayaku
munapayankichu
parinaqutapas
megantoni
hidalgo
quntumasa
aha
arqa
alas
akunanpaq
achayuq
ambi
agui
basa
clas
dus
dura
efec
feb
flores
hong
histo
ikun
keno
kkota
ofi
ohio
pika
tv
truy
uspa
wu
wy
zuri
##oqa
##aman
##ile
##ime
##dral
##dish
##dney
##ew
##gne
##cle
##cruz
##hiy
##kkuna
##pes
##tuspa
##qs
##qos
##ʼaq
##bras
##ск
##ρι
##anchu
##qata
##qaru
##qasqan
##ayk
##parin
##pallana
kallu
kampana
kapinuta
##mac
llaw
##chakuynin
##lluq
##llki
##lliyuq
##llero
chulu
##kukuna
##kuqta
##kukama
##llatana
llaqtakunaqa
wachanqa
##wasqayki
##usqanku
maru
##qanchik
paqo
pampan
ananku
ange
siqa
nisqay
nisqapa
##kipi
kaytan
kayni
runachu
##hai
suyupa
suyuwan
suwan
inpi
inuyt
kilta
watapaq
kash
sapay
saba
sawintu
anqatam
ayha
aychay
##chaya
##chaypi
qillqamuy
##taqchus
##tinkuna
##tinpas
##tinpim
coca
asukar
##lium
sutiyu
tabla
unun
unsiya
navar
qaraq
maypitaq
allana
pachaj
istunya
##chikkunapi
wiksayuq
hinapi
hinapin
kaqninkuna
sant
paytan
paypura
paykunapura
imawan
imappas
##kunapita
##puku
kamariq
kamacheq
llaqtansi
inkill
nawiy
nawiyuq
nawiyki
manay
manku
wij
##alis
kuku
kumb
tukun
laraw
pukllan
limon
mayupura
##llankutaq
rimaytam
tumay
tucu
mark
marx
markan
chir
chichi
uyway
##chiynin
raq
ramos
##chanpi
##kamarka
jallu
jamp
jamun
parq
parqu
##dicion
willakunata
##chinaypaq
kawsaymi
kawsaykunata
kutiqa
kutichispa
kuticherqa
wasip
wasikunata
##hinaspan
arki
arqi
puku
unchawmi
##mbe
alqo
albert
awqay
tarpusqa
qantu
##niyuqchu
munakuq
ruwarqanku
##vio
tibe
intita
yanaurqu
##chisqaku
kush
sini
ayar
qusqumanta
105
##sunman
yuyayta
arizona
roca
117
uqllu
chaymantapas
##ykichik
##kunamantan
##tanataq
167
##sing
141
muth
qhura
antibio
suysya
suyaykamullaway
qhawayka
kastillanuchay
taytayuq
llanka
puriyta
##mera
##medo
uywasqan
sapallu
usill
usni
qillqasqanqa
tiyananqa
yuyaykuspa
seq
araw
envi
##patapi
qispichiqkuna
qillqaypim
##qtinku
moise
movie
rumim
rumikunata
pampakunapi
qarqa
chinchayninpi
rimanankupaq
khuyay
peruano
italyanu
##llapapaq
jeff
imaynatan
purisqan
purisha
riqsiy
winasqa
achawan
awqaqkunap
jisq
chaninchay
castillo
yawarch
salta
pini
churkampa
wasiyuq
##bilon
social
toma
##ninkuman
qhariqa
##uquen
kashanchis
chayarqan
qosa
iniyniyoq
##koki
fierro
ullalla
hamurqanku
panaman
city
yanaparqa
nuqataq
qaqata
##hein
##ʼaj
phuru
bibliamanta
akllasqan
sarasara
hurquq
shilla
llikam
ankallis
vallado
llaktapi
kawsanankupaq
suyuntu
runtun
360
huwancha
murcia
intercul
milluni
onqoq
##asqanta
1889
1880
1839
askachakuq
1863
umirq
mamanpa
africa
qawari
kallaw
ofren
##suykichis
1852
llullakuspa
profecia
theo
##rene
noqanchej
warmakunam
1000
mamaykuna
##base
trib
##munanta
nuqaykuman
walt
1816
##dungun
kisma
##warqanchis
mayqenniykichis
utah
utawalu
bilisi
wawayki
runtuma
shukllachishka
qapariy
aylluska
wayaqa
palabras
tuychi
foto
##cayo
oldid
pasaqta
aynim
##chiwanchis
llaqtanchikpi
yupaychanki
gonzalo
islam
sispay
##gnos
puruha
##curs
thansam
thansakunam
aviles
alfred
nillarqantaq
simanapi
qaranapi
samuelpa
kikiykita
aguas
mapudungun
suticharqa
tukapu
benede
asnaqucha
1572
klasi
chaskispa
qarqusqa
yumasqa
hernandez
koln
molina
columbia
merced
liwrun
almaymi
garcilas
gustavo
dimukratiya
banladish
testigo
##chester
juqhu
nayriri
selec
wiksanpi
kusikuni
tʼuku
##polis
reinon
plurinacional
albanya
faraon
nuestra
lagartu
uksiyn
madagaskar
isklaw
proyecto
isluwinya
script
capernaum
grinada
ramsar
database
display
testamento
truyanu
tibetu
moisesqa
##bilonia
ave
akunatam
abu
allapa
amaya
der
epin
evan
eze
emer
fro
grin
here
hqs
itu
ido
ichiq
irus
irra
ikuwa
jin
jas
kina
klisa
ly
otu
ochu
ope
ollanta
puyu
pwi
plu
quk
qing
ren
sri
zona
φυ
عب
##oya
##aw
##shu
##ug
##ides
##nun
##dl
##dt
##daspa
##eu
##gg
##ccha
##cci
##hchu
##hayki
##kel
##kista
##tsin
##vina
##von
##jana
##jmanta
##ии
##anda
##ante
##ankichu
##taki
##chuq
##ayay
##inu
##inpi
##pala
##pachaq
##kunallata
kaa
kapuy
##til
##chaman
##chakunku
##llaya
##llatan
##llarahu
llaqtami
wallan
wachakuq
##ukisa
##warqa
##ruqa
mato
mawri
makis
page
anpi
siyu
##killa
kaykunan
kaynu
harka
hamusha
hukkunata
hukchakuq
##ninchej
##wanda
##har
yarina
yakuyuq
##tup
##turan
sudan
chaykunataqa
chayarqa
kip
kiri
watakunaqa
qurqa
kaspi
kashi
kastana
kasukuy
pichi
pillapis
ayma
##esti
##enz
manachay
manataj
coun
##lie
wanura
wansa
##chisunchik
##chisunkichis
##kuykunata
nakay
comun
qawan
qapari
##chiway
maymanchus
allpaq
allwya
##chiki
##chikwan
wiksay
chata
hatunchasqa
kaqninta
ruasqa
imallatapas
##elson
witi
wijch
yachakun
yachaqayta
laqa
ladon
litera
yachaysun
yachaywas
yachayninkuta
amam
##kanku
##wick
mikuna
mihiku
tutata
marya
marino
maryana
marquez
chip
uyq
rakha
##cachi
##tela
##dom
##kuqchu
appas
hayun
haylli
##chinayuq
huar
rikus
rikurisqa
rikuchisqa
rikuchirqa
pusarqan
##chkaqta
##chkasqa
reg
##oqqa
came
cabana
artu
aren
##muway
##mudez
##guas
##mbes
ales
awril
##rispan
##chinam
qillqasqakuna
atirqanchu
amigo
ruwasaq
ester
##vic
yanas
yanaqa
yanamayu
##ptinchik
kusisqan
##aykikunata
kanqachu
ayawiri
imayman
jesuspi
##sunqu
126
kuntisuyu
robin
rodolfo
118
chuqik
##lotte
chaymantataj
##ykiqa
yakukuna
##qanachu
tiyaspa
tiyasqan
##bao
##ball
taripaq
nuwi
suys
prote
taytaykuna
apusqakunata
bahua
bambas
babilonia
kasqanchik
kasqankurayku
pusaqsi
##cea
chullu
##see
ortiz
puririy
##metri
##thur
uruta
urumanta
##dukuna
alianza
utuyu
uslulu
kachkanchik
kapka
jinachu
jinapis
jinallataq
qipan
lenin
urapi
yuyaychasqan
grimm
inlisyapi
watamantam
arakuna
arachupa
enqay
carro
carras
##niykimanta
guarani
##tayta
atinkichu
cona
patakunapi
modes
pampam
pampachasqa
khiki
sonene
apachana
imaynamanta
runakunatas
riqsiq
jisus
##ename
##phana
mera
amor
##pajqa
llaqtakunapim
corona
yawarninta
##pora
buwis
##chomi
waqaychan
yayayki
galle
kayninmanta
yachankichis
churakuspa
qosunkichis
hipoli
provinciapi
ruwananpaj
fire
fiebre
kruspi
machukuna
sonqoyoq
qunqu
yanapawanchik
mikhunam
amachaqmi
fermin
hurdan
challwawachu
chikchi
vall
##punapaq
llimphisqa
valor
bermudez
pakaqi
ruwasqas
purinku
reqsiy
qarapi
material
quichua
allampam
allampakunam
##anchista
1835
pumaqanchi
charlotte
parlaspa
awariku
taytanqa
1842
1845
anchatapuni
imano
municipa
phinakuspa
kalindaryum
saqraqa
lluqsimuy
harawikunata
munakuyniyuq
upya
qechu
qutapata
lukas
sikri
pabloqa
ispanulkunap
plata
rimasqanta
kawsarichi
munasqay
indyapi
khuru
jerusalenpi
praha
urmasqa
1810
qutupi
leoncio
israelpa
paqpa
anqasqucha
puraqmanta
naupaj
qullawpi
kacharikuna
suqus
hamachi
qaparinku
regional
qhawanankupaq
primaria
samwa
soldad
muksichaqta
tupisa
hindi
faunapas
olmedo
apanqara
jusk
kayapas
qirupallqa
pukllanamanta
yarqha
sarumilla
ovejas
qallta
derechonchiskunata
wamali
colombia
1548
romero
ruraykamayninmi
caballero
jujuy
sintoma
prometes
mayordo
##oamerica
katidral
johann
hoqarisqa
murunkunatam
tecnica
mercedes
##евич
lunq
##llarqataq
dimukratiku
tumawi
##grande
papel
anqankunata
saqapampa
antartika
office
machaqway
unqunayaq
segundo
##arunari
durango
deportes
salud
oaxaca
##taleza
dilhi
amazonas
aisen
chamqa
presidente
ollantaytambo
ramran
tarpunchik
makiyasiq
miami
chaywampis
benedictus
ecuarunari
hasut
mamallaktata
humboldt
qhallallaj
tokyo
zurich
sinigal
antibioticos
valladolid
heredia
bahuaja
carrasco
modesto
hipolito
arisqa
bl
buk
esa
ethan
ejer
fin
fisi
foo
ikuy
irqa
ichisqa
ime
iyun
iber
irun
jul
ky
long
om
ojo
ple
pho
proni
qana
respi
rwanda
sor
solo
stre
ty
ton
turi
uh
uwan
yos
zara
##lina
##ao
##ag
##at
##style
##ugh
##ymi
##nis
##dge
##mys
##gka
##qpas
##zana
##zos
##ил
##baya
##xtla
##εια
##tak
##chuna
##aykama
##aypaj
##lapa
##uyan
##mila
##mium
kachiqucha
##mato
##titis
##chap
##llispa
##kuchkaq
##rilla
##rior
##rium
##manpis
waha
wapu
##waqa
##ustani
mao
mad
machin
##kapak
paran
palu
siwis
##kikunata
kaypaq
kaypas
runapaqmi
hamurqa
hukkaq
##nintaq
##ninkunap
##nintaqa
##ninkunaman
##wanchej
##haq
##illqan
##puyta
##puyuq
##rqanmi
rij
rirqa
ripus
qum
qurwa
qullun
kashka
saca
samp
sale
sapin
saph
sallqan
pio
pit
pira
pichana
aywan
ayriwa
##kunataj
##este
manakuspa
manakurqan
kanqanku
kanaykichispaq
ast
asra
astay
asnaq
##livia
umachaki
qhawarina
wankayuq
##asya
##asqanku
taku
takisqa
taqe
unuyuq
##raymi
qahira
##chikuna
maychus
##sam
defen
rikuni
katiguriyam
katiguriyakunam
chapusqa
##ors
kaqrayku
ruma
##cios
sankhu
paycha
imamayta
##tora
##town
aqkunata
aqpis
##kunapitaq
##niyqa
##isiana
manchester
nitinmi
niptinsi
kumpa
kump
kutasqa
lachay
lakachu
pukllaymi
div
lituwa
litunya
munti
##rqaspa
marti
marse
yuraqta
rab
raqacha
##doma
##dows
rurakunanta
wayruru
haykurqan
##die
##dilla
##dica
##diente
iskaymuyu
tiki
kawsaywan
kawsayninkuwan
##ankukama
kunanmanta
rikuchikuy
rikuchinku
warkh
##pei
##chiqmi
urquwan
mush
musk
musphana
recon
kutilla
kutichisqa
kutimuspa
cam
wasichasqa
juchay
puhili
phaw
phat
alci
alkul
tarina
itiwan
uyaq
uyarisqan
##risqanku
##rino
lliphi
munaku
ninan
peli
amigon
missis
chunkamanta
##viare
intiq
##aykichikpaq
##govia
rure
mikhunanpaq
sutinkuna
122
##llaykuna
rob
119
uqsitan
sumalya
bomb
##ykiwan
##ykipas
allpaman
yakumanta
##tanapaq
unchaypin
148
140
achkam
qillqaqninkuna
saqin
saqerpa
sutisuy
tarikunku
nuflo
proven
nawpaqkaq
chakrakunata
chakrakunapi
taytallay
##punitaq
llankay
kawsaqkunam
baba
baja
bagri
anchayki
##metro
uywakunamanta
urupi
neuquen
karqachu
kachkanki
luru
qillqasqanpi
qipun
yuyayninta
llapanchis
secre
tiyaykuy
carpio
qispichiy
nawram
##yunpi
pachakwataqa
condor
movi
qaranta
wallpasqa
runasimiman
loa
##kusqaykichis
apar
apaka
##kusqanman
imaynam
siminpi
asqam
chilip
aqakuynin
ruwaychis
kamachikurqan
chanincha
minuy
damas
##poda
unquymanta
##filo
##ficado
yuraqchawan
pinwinu
churanku
senorqa
nakʼ
soto
willaypi
hanja
##uqutu
waqaychanapaq
chayasqa
chayamuqtin
iypi
churarqan
hipa
higos
##shaspa
##tsan
##chea
qanchismanta
noqaman
##dores
##kunkuman
ruwananta
joya
sonqoy
montero
unumanta
home
kachunchu
ciencia
circa
wanuyta
wanuyman
runasmanta
##gart
tayik
pisqukunap
auqa
karchi
challwakuna
##culus
chinkachi
rakiri
tantanakuykuna
suyunkuna
suyuntinpi
kamaypaq
puriqkuna
##mbab
1873
1870
land
##huasi
llakipa
alalay
hercul
herrera
ukhunman
1820
1887
1832
ruwaqqa
ruwaqkuna
pumap
##gasa
##chakuyninta
##unkiman
1861
parlari
kupakuna
taytanta
1848
facultadkuna
estadoq
imayaypa
cheqampuni
jich
samaria
tantanakuyninmi
terror
##chikunqa
##landis
profetakuna
chukchan
lluqsirqan
atuqqa
hisuw
mayqinchus
tradi
pachatapis
mishana
premio
vende
sikllalla
sapsilla
kaqtinmi
imanam
yanapayninwan
akllanakuypi
marankani
usaqmi
pilli
wayllapampa
leonardo
guaviare
veronica
##keqa
noqaykuqa
masinta
##niykichismi
diaz
cristian
tesal
##zig
tiksimuyuntinpim
ruwanapaq
nukch
ulaymi
##sippi
rikunqaku
narnia
1532
samaypata
##icuni
wamran
hatarispa
louisiana
achayoq
wanuchinkichu
jacques
moisespa
ahus
ern
erqe
980
llimphim
tapukuy
tiyanahamp
anaskituqa
##gnum
thaski
sillustani
jaykʼaj
burnet
hurqunapaq
masiykuna
akllanakuykunapi
hermann
urpicha
nutqu
princi
bautizaq
kʼachapuni
colonia
chhaynaqa
anchayniykichik
joao
tiqsimuyun
allmakunapi
umuyku
ingles
corazon
volcan
saksa
cuidakuychis
jayupaya
colegio
parrafo
huhsunqu
pachitiya
niyatiwu
usiyanya
salamanca
##fisyal
llallawa
khaynata
##efrina
frederic
kirkisuyu
espejo
francois
francesco
qhishwa
wiyulin
carolina
podcas
podocarpus
solanum
tulkan
industria
pulinisya
khirkinchu
garcilaso
displaystyle
epinefrina
ikuwatur
عبد
sikritar
pronied
sallqantay
mississippi
ada
arqanku
achkan
akunamanta
atapas
aven
adolf
bron
cli
cris
croni
dr
dun
das
eph
fon
gras
ia
ida
ker
mc
ona
oni
pisa
pani
pesa
teno
umb
umayu
uriq
##oz
##orqanku
##lde
##ix
##iri
##idea
##nenqa
##misa
##mero
##eus
##rerqa
##ranapaq
##gy
##gros
##ctura
##his
##kho
##konqa
##punan
##wpi
##tuk
##tza
##try
##qqa
##vy
##zz
##fra
##он
##bpa
##bro
##12
##xe
##τα
##ιτ
##ορ
##ογ
##حمد
##anqan
##anki
##antes
##taraq
##chy
##chistan
##aypas
##unakuy
##paca
##isyun
##kunallapi
##mit
kachasqa
kampa
llaqa
##chapi
##llku
##llus
chul
##yas
##llasun
##riqa
##mantsik
##uqi
llaqtakama
llaqtakunan
waqtan
wakay
##ikay
##wakuna
##kapa
##kami
##karu
##kachi
pach
pallay
pache
pacienci
anna
ananta
siw
siwas
siwara
nisqakunapi
nisqakunamanta
##anas
##anaman
kaykunawan
kaynata
hau
##ninka
##ninkunapi
##wanna
yapan
yapasqan
yampara
##turu
supe
chayar
chaytaj
inchay
kila
kichay
riya
qur
quru
##kunaykipaq
##kunkuchu
##kunnaq
sarusqa
picha
##sica
anqay
##chaywan
manawa
manakuyta
manakuychis
##erson
kananqa
##quer
##qullqa
##quilla
asnu
asqupi
##lim
##liano
##life
sutiykita
##istra
wanuspa
wanunqa
##chisha
##kuyku
nagasa
como
qatin
qawarispa
##chimun
##saj
demetri
pachakunaman
pachapaqa
##chikpipas
katiguriyaqa
chal
piruwpaq
##ciayuq
##cica
paqay
sanka
payrayku
paykunapaq
runakunapi
##paykunaqa
aqlla
##ulia
##ispataq
##ranta
##niymanta
kamachik
kamarisqan
kamachika
llaqtanman
llaqtanchis
nawis
mangla
yachachinapaq
yachakunanpaq
wikikunapi
urku
urdun
urqus
##nal
kuchun
kuchuy
tukmanmanta
laur
laram
lake
lazaro
##rol
libi
yachayninkuwan
allinka
rimayninqa
##kaniya
##wice
michiy
tumbes
chica
uytu
yurakari
wikipidiyata
wikipidiyapiqa
##riypi
##chiyqa
##tamin
##kuqkunaqa
rurasunchik
chungui
willarqanku
diosniy
rimapaya
huanu
##punta
rikusha
rikurqayku
mushuk
caus
casimi
campan
wasichik
##hinaqtinmi
arti
arro
aristo
##mula
kitillin
##mintu
unchawninku
alqa
awus
awina
awtu
tarisqan
ikway
uyapuran
##risa
##rison
qanpa
qanpaq
qanmanta
##tawanmi
qillqasqakunata
munakuynin
ninkuman
antakuru
petro
##vides
tierra
tigre
tigri
chaskis
intika
intichaw
mamallaqtam
kusma
windows
##dellin
imaynas
viol
vidal
125
umalliqsi
rou
113
115
chuqin
wanuchinapaq
##eji
chaymantam
wawakunamanta
unchaymanta
nisha
ranqha
saqraq
tarirqan
nuqaq
139
136
llangana
##ceto
chulli
chuicuni
##mez
##thus
wathiya
##duwa
diospaj
utqhay
##quyuq
nehe
karqaku
maskoki
##tions
ananpaj
nankunanqa
qillqasqankuna
wakinllapi
##triya
sello
segovia
kamayuqninmi
llankʼ
fab
faus
waqcha
##ralta
aragun
sallqapi
atinkiman
risirwapiqa
conne
contray
chaskinan
rumilla
rumimanta
##tismo
paso
juanmi
brasi
ninaman
apamun
cua
chawpipacha
siminchik
pukallpa
qallariyninpi
pantan
tinki
pachankam
metal
mesias
medellin
allita
allillamanta
##anchikpa
cortes
corpora
poma
paparawa
junio
hunukuna
wasis
wasiq
wasiyki
ujtawan
kachamurqan
hanpi
waqaynin
waqaypampa
muyuriy
muyupayaq
chayamurqan
gau
gama
jehovaj
jehovaman
churarqanku
hirka
##tsiq
##bela
##beth
filoso
teta
sonqoykichispi
huchachasqa
##waqchischu
ciego
yanapakun
taypi
taywan
taylor
bibliata
bibliapi
lluqsiq
unanchas
pakaya
puchuq
nasyuna
ankar
ankaqa
chikin
vari
reyqa
gera
llaktakuna
##qhapaq
kawsananchikpaq
aspiwan
kamaypi
port
porres
ruwasqankuta
pakaraw
ariyta
1878
langua
kamachinta
interface
yayaq
ukhuncha
khuyakuy
1823
askasqa
apurimac
1866
supaykunata
parlarqa
unaymanta
imanasa
ruranakuna
ruranakuspa
pulgar
##derland
##llasqataq
nuqan
1850
##conas
yuyarikun
illichu
unquna
grisyapi
munakuyqa
##gunata
aytuta
murukunata
##ikanu
rantikuna
linti
sipisqa
usillukunam
central
waliq
malwa
kumunismu
lagunas
auguste
guadalu
mancharikuy
noqaykuman
waqachiqkuna
killmu
riyta
penn
diagnos
yuyarin
ispirituy
juchalli
chiqni
##hammad
runtucha
achuar
qaparispa
munaqqa
machaca
machalilla
isparaw
5000
rumantiku
qhipaqnintaq
azul
1535
tiksimuyupi
vallegrande
romano
##jesusqa
masikuna
yuquy
imashikuna
sutʼita
saminchasqa
tapuri
uyariychis
kurkunpi
##enses
tecn
alliymanta
tsala
tsachi
satanasqa
atiyniyoqmi
respeta
luzmila
##niqpi
avila
gobiern
hamuyta
uywakunappas
henri
hanaqpachapi
qirisa
mainz
wikimediap
kuyawinu
vasco
jatuchaq
autoridad
##mentota
urmaykuq
andrew
teqsimuyun
ususin
veracruz
klawil
kansas
exodus
aniceto
phiskuna
johannes
bayern
maskaspa
jinallataj
allichapay
siglo
tiwlli
patiwillka
demok
chullpakuna
sillwichaki
poqoy
jesuita
ingeni
cobraq
reparan
khishkayuq
copy
pilatoqa
shuypaqa
benavides
allillanchu
llusk
organizacion
kulunyan
wiyacha
saqmanakuyuq
guangdong
alexander
bundes
utusku
birdlife
guerrero
yukatan
athapaska
guillermo
##bourne
namiwya
ararankay
grosso
qasaqsuyu
hawaykawsay
samirya
request
alaska
ambiente
basadre
classis
duraz
kalluwata
kumbinsyun
arawkaniya
envidia
tribunal
benedetto
select
pwiblu
literatura
pelileo
movimiento
idaho
pacheco
nagasaki
corporation
nasyunalista
guadalupe
ae
aqan
ataq
atan
aero
achispa
amantan
achanqa
belo
criston
emb
glas
huy
hiq
ichasqa
iyu
moq
muya
muyuq
mesa
nej
ninsi
one
pes
piyu
play
risa
rarqa
rene
ss
sc
syi
toq
tol
tres
ukunata
uhu
umpi
ufisyal
wen
κα
##oto
##oquia
##ate
##sisqa
##sus
##sisi
##uru
##ij
##itu
##iza
##ny
##esqa
##rusa
##reno
##guy
##px
##pre
##ple
##wisqa
##wik
##qkunata
##velo
##jal
##zen
##ос
##ησ
##une
##unpa
##taza
##chten
##ayas
##lam
##lawa
##ladi
##ladel
##piti
kamayu
##main
llami
llaqi
##tillan
##tida
##chal
##chara
##chapas
chis
churiya
chiqui
##kullay
##kuptinqa
##llapin
##llataj
##llawanmi
##rir
##rien
##rikurqan
llaqtapaq
wakichis
##ukuni
##waj
##wari
##wakin
##usu
##usep
##rugal
mauk
malas
maine
mathiyu
##kachasqa
##kapu
patu
patakuna
paolo
pablu
siqi
nisqamanmi
nisqamantaqa
##kikuna
##kipaq
runaj
hamburg
haqaru
hukta
hukninta
##sqay
##ninkunapas
##wantaqmi
##ongo
yata
yamina
sue
suf
suru
inkan
informa
##puychis
##rqankichis
rita
rico
##ulun
watay
qurqan
quwayku
##kuntin
kasan
sadu
pia
pima
pikunaman
piano
pilon
pichiku
##sif
ayki
ayninqa
##chaypas
##enc
qillqakunaqa
qillqarqanku
kanqan
kanaypaq
##quina
coto
##himi
##hilista
asuka
asno
assisi
##lita
##liya
##lizacion
suticharqan
##istina
qhat
##asun
hawaii
tapi
unms
nazi
##tunpi
comunal
qatan
qallun
##chiya
##chiptin
mayman
##samaq
alliya
allende
sutiyuqmi
pachapaq
pachapis
pachakawri
iskan
islas
##chikkunata
##chikoj
hinallan
hinaptin
hinallata
hinaptinqa
##orani
hatuncha
piruwki
kaqkunam
kaqkunawan
ruben
rueda
paykunapas
paytaj
paykunapa
imamantapas
imajtin
imallapas
imapaqtaq
aqyay
##ranu
karqanchu
llaqtankunaq
##pani
qhapaqsuyu
manaya
##eland
yachachiwa
yachachikunan
wikirik
niku
nirka
kutis
pukyun
dius
dipartam
yachaychis
allintam
amaz
##wita
##wich
michej
tukuna
tukuq
tullp
chichu
chiway
chiriya
##chiykuna
##kuqpa
jamuspa
jaime
wayay
hayku
haykuy
##lum
##lumin
diospas
##chinqaku
huara
##chuspa
iskayninku
kawsaychis
rikuspan
anchatan
mustasa
reemb
kutipayaq
kawsachikuy
cab
anata
arn
arman
armin
arque
##muchun
juanta
puj
puente
##gula
phasa
aler
taris
tarde
##hanchis
qankunaq
qankunataq
##rinqaku
llipin
qillqasqata
munakusqay
munapayasqan
atipaspa
suyukunapa
suyukunaman
ruwas
ruwapu
espin
estra
##vidad
tito
warmikunaqa
intillama
##aykim
jesuspaq
sutinkuwan
##panari
##lesias
kunwin
kuntista
kunchuku
markapiqa
karumanta
parkipiqa
bora
yakupas
unchaykunapiqa
achkata
muja
qhill
kuyay
rantinpi
##anpaqmi
##anpaqri
nui
taytaykita
133
##velica
kawsaqkunata
balles
pusaqninmi
anchaykachaq
chuchu
chubu
orqon
purikuq
watuy
watuq
##linu
utuy
uski
##quyllur
killata
##pachamanta
chawka
kachkanchu
##muychik
kallpana
kallpata
leoni
yuyayk
yuyayninkuwan
munankichis
munanichu
##uyaq
enton
atiyninpi
conc
conven
inkisqam
pasto
pastor
kashaqtinmi
uyanchay
sena
runasimillapi
braga
bravo
ninata
aban
##chejqa
qullpaqucha
##watapi
siminqa
##dard
asqachu
panan
pantana
panpacha
##oooo
gomez
ruwaykunapi
ruwayninkuta
meda
kamachiptin
uchukuy
corri
corte
paqarimun
minh
munayman
geno
barco
barinas
chunwapi
willaykuykuna
totora
ataw
qallarisqaku
kacharin
manchakuq
gai
##llatataj
tantalli
provincie
##tts
kanapa
kanaris
beta
qosaq
pichqaqucha
ruraynin
rurayninkuwan
tiksipusqa
##dorf
ayllunpi
aylluntin
##koqa
wasinmanta
ruwanankupaq
kurawara
ukupas
##hasqu
montal
hori
hous
hotel
civil
yanaparqan
qamri
qamkunaqa
##gencia
bolivi
akllakusqan
pusiti
hurankichu
kapchiypa
chinkari
vali
llimphiy
llimphiyuq
kamachiqkuna
wawankunaq
valdes
eclesias
suyunkunapi
tutaya
1893
ruwasqankunata
riqsirqankuchu
turk
kamachinan
alata
purinanpaq
herencia
servin
mateu
1827
estadu
##inea
yanuna
makinwanmi
morelos
mamanqa
nunuqmi
taksa
gary
irumanta
lloqsin
facultadnin
espirituwan
imanku
iqtaku
akatanqa
jim
llimphiqpas
tantanakuypi
##vania
awqakunamanta
qonqaylla
surku
munasqankuta
nord
giusep
nirlandis
waqyasqa
##fox
murucha
qella
watanman
watankupi
qutawasi
qespichiq
mirachiy
puchukayninpi
##ette
sanampakunata
ichhuna
maskʼ
asamb
minaq
hunusqam
palistina
kamaqillqan
ullumanta
pillku
kamachisqanta
calderon
phuyupi
apaykacha
paqtachani
maqni
mendez
thanta
mancharikuychischu
uruwayipi
hawkay
yachachisqas
yachachisqayki
pawlup
puyka
unancharqanku
bilbao
clara
volivia
chiqn
yawrikunam
1809
chhalla
chhaph
puquchisqa
qhipanpi
machala
musphaspa
leyes
raymin
pachamamata
awstralyap
rikunkichu
grand
anakikunap
azu
purtuyiskunap
sitwa
fariseokunaqa
ichigka
tusuykuna
pʼiti
naupaqta
saqillasqa
eliza
impuri
thaskiy
respetasqa
horqo
##kuqtintaq
munanakunan
oregon
chaqrusqam
kusisamiyuqmi
olivos
##kushani
tupum
##nejpi
ashwanpis
qilqan
qilqasqa
aqtasqa
malaga
ukyananpaq
##hilyu
iwanhilista
iwanhilyu
##dinal
phransya
makru
kusiywan
huancavelica
widyum
exodo
ilaqta
kampiunatu
teofilo
origina
xxii
jonaspa
paula
nillantaq
obis
janaqpachapi
##niyuqta
camilo
glaci
metropoli
qhapaqsuyunmanta
angelqa
instituto
espada
tʼaqa
wauqen
guanajua
##rimachi
prometerqan
tamarugal
alvarez
birmanu
##pukyu
##furt
antisana
kiyaqa
wayllunk
asuwi
idioma
liechten
qulumi
providencia
maurice
magaly
tabaconas
bilingue
secunda
wawanpapis
insiklu
klasiku
idolo
qukunanpaq
alessan
kasqanchikraykum
firefox
hurdanya
municipalidad
ejerci
##asyatiku
aqakuyninchiqta
tradicional
demetrio
manglares
llanganati
unanchaspanari
tsachila
bundesland
durazno
amantani
pikunamanchus
unmsm
imajtinchus
dipartamin
reembol
munapayasqankuta
kunwintupi
pusitiwu
giuseppe
ichigkat
guanajuato
liechtenstein
ataqa
akusqan
afi
agen
blu
bec
cr
cri
ces
cere
dc
dres
equ
ever
eten
fina
gol
hunan
heb
iqan
itin
iray
ichin
igua
jn
jpeg
kish
ling
linsi
lyon
msn
nes
op
oq
omar
oce
puya
pere
preso
rasa
risaq
smi
sho
scien
ub
uqucha
vladi
wins
yer
zuni
##lvania
##shire
##uo
##uco
##uary
##ykunata
##ig
##imay
##ichi
##idae
##nay
##nos
##nillan
##dika
##duyuq
##dland
##ee
##rdo
##rayuqmi
##cc
##cli
##cca
##cano
##hwa
##kon
##py
##pzig
##tm
##tqa
##tlan
##telo
##vre
##jor
##ар
##zh
##bn
##ιν
##ʲɪ
##ane
##ania
##unti
##unfo
##chuka
##ayman
##inc
##inkuna
##inti
##inman
##inmanta
##lav
##lapi
##lawya
##late
##piy
##paz
##paku
##parqan
##parisqa
##istica
##uyoq
##mira
##midya
##mica
kachiy
katha
##maticas
##tik
##tiv
##tima
##tidae
##chakunamanta
christo
##kuchin
##yachay
##llapata
##richiy
##ribio
llaqtacham
wala
waorani
##raki
##ramun
##wam
##ush
##usqanta
##rua
##ruro
maras
##kamus
pallaq
antun
sida
sidon
siwina
sicilia
nisqakunam
kaykunas
runacha
halay
hukkunawan
hukninmi
##sqaqa
##wani
##wansi
##wantaj
suyuta
yaman
yawi
yacu
##tuqa
suchu
chaypa
chayanaman
inkuna
inlla
inispa
inmun
infi
##rqanna
rix
riranllapa
watata
quchan
qutaqa
quriway
qurisapa
##kunchis
llamayuq
kasuy
kaspan
samaq
sakawa
llaqtapis
llamkan
pilla
pitachus
anqakunap
aymar
aywiy
##chaykuna
##chaynin
##chayrayku
qillwa
##endin
qillqarqa
qillqamun
manaspa
manakuq
manakusqa
manakusqan
##arte
kanpas
##quma
##osis
cobre
asqanku
qhatuy
##asyu
##asaq
##ashqa
tal
taj
takar
##kuypas
naq
nasi
nacen
namba
nahua
napoli
##monio
##montes
##chiran
apuyta
allqucha
isiyay
kawllay
chakuq
charas
chaupi
##org
piruwman
piruwpas
piruwpiqa
kaqkama
kaqllataqmi
rua
rudiyu
runakunatan
imahina
aqqa
aqya
aqchus
aqllasqa
##kunapika
##kunapichus
##putu
##ranchis
karqani
##spari
llaqtanmantawan
inkiyuq
##panta
mancora
##kayllu
##mpal
wichasqa
##sqanmi
urb
urun
urqh
niwanchik
nitinqa
kumu
kukuchi
tukunanta
##rerqanku
lara
yachayninman
munecas
munoz
allincha
mayuqa
##llantan
mix
mikusqa
mirana
tullpa
marta
marca
chico
chichiku
chiloe
uyka
yurakunatam
##dario
rapi
rama
##tamina
jak
jama
rurashka
rurakunanku
wayllaq
ayllukunapi
haykuyta
chunchi
chunkana
##dir
##diosqa
willarqa
willakamun
rimapay
rimariyku
hukllam
##chino
yuman
yugus
yuqalla
huer
##punti
iskaylla
tikran
kawsaypaq
kawsaytaq
kawsayninchik
##ankupas
##raykuchus
##raykuwanpis
rikushan
##kichispi
urqumanta
musyana
musphay
reci
reuni
tiyu
kawsachun
##chkanmi
cari
causa
camara
catal
cambri
arsen
chinan
kitikuna
pullu
##mbra
phata
alpha
munakunki
munakusqanrayku
ninman
misyunkuna
llaqtapin
ruwakurqa
##vieso
tia
tipu
uktu
uksi
yupaymanta
warmiq
mamallaqtakunapi
nova
sayri
##chaqkunata
##aykichu
kikincha
##goza
ruraymi
ayawaka
takiyta
##sunkiku
viral
129
##vaca
##llaykichis
arichisqan
kunay
##yanqa
##yankuna
##qoy
parkimanta
uqlla
wanuchirqanku
ruraqkunap
##ejta
##lish
##ykiman
allpap
allpakuna
allpawayu
unchaypaq
unchaypiqa
144
achkaraq
muchik
muchun
qhisqa
##qanam
rantista
ransya
antioquia
##pinta
tarikiya
suyus
135
131
##vedo
llanp
kawsaqkunapaq
babil
anchayninwan
##sea
uywata
akcha
akra
watuka
tukuman
winaypaj
nebras
killakama
ananpi
nanmi
##muytawan
llumpay
jinapi
qhawarisqa
uraman
yuyayniyki
sede
sellasqa
munanchik
arapa
arauca
unidad
carrion
##kurqanchu
guar
##niraq
atinkuchu
risirwakunapas
yachaqkunamanta
crees
##cuta
chaskinqa
paskwa
##kusqana
cuba
qollana
licenciayuq
274
271
puris
tinya
tinkisqa
aqakuyninta
churinkunan
##phyta
quyan
waqaspa
kamachikuna
pisqucha
pishqa
kasqachu
kasqaykita
yachachiyku
wallap
wallata
dyusman
uchuk
##wanapaq
yawarmanta
salqa
salsa
unquyniyuq
munaycha
yuraqqucha
yuraqmarka
pisipaq
pinu
wasanpi
tanqana
tower
toribio
ataspari
##ninkuqa
jatuncha
jatunchasqa
kachamusqan
chayamu
chayamunqa
yaykuna
january
tantallawanchu
nawiriyta
yachankichu
churakun
qospa
##llows
ruraykuna
ruraykunata
##tasta
doctor
ruwanki
illin
chhuq
qunqan
quntay
iwrupapipas
##ebio
nuqam
qamkuna
qampaq
suyukunapipas
phutu
wayrata
kardinal
lluqlla
unanchayninta
wisn
##saqchu
challwamayu
reymanta
reykunaman
wawankunamanta
llakikun
aychata
berm
kusala
##tusi
kamayoq
angelkuna
hein
kinya
villamontes
murru
muruqucha
kaqtaqa
alaju
santuario
yachachisqankunataq
millwa
japon
ontario
aix
khuyaq
allampakuna
1838
1837
ruwaqmi
osqo
charana
supayta
awaka
chakiykita
madrigal
takyasqa
1847
aphru
zagre
mirayninmi
torino
imayaykuna
cheqasman
jersey
kawapana
sanampan
1859
sureno
profetan
chiqanchasqa
gib
kevin
shimita
shimipi
chaynallata
upyay
kamachinakuy
watankukama
##eira
ajllasqa
raprayuq
layan
sipirqan
achitu
mamayki
suyasqa
rimaqniyuqmi
qolqen
palpa
palma
triunfo
##munankama
jerusalenman
walter
1814
rakinpi
calvo
leone
achkiyqa
iqtayniyki
iqtayniyku
baldi
hamach
##kusharqanku
georgi
pachakamaqta
taraputu
yuyaris
juchaman
orqoman
orqomanta
prutina
qapachiqa
aylluyki
micro
##shankichis
kusikuyniyuqmi
xix
allqumiyu
loreto
nukini
primer
raykun
wasichaypi
kamachikuqkuna
fortaleza
palabra
phinu
salasaka
1799
shinapash
awqanakuypi
choque
costa
kawallupi
bologna
familias
raphiyuqmi
thumana
##rqusqa
1781
felix
utiq
uyarishaspa
yachaqanapi
llaqtanchikman
ernes
qhaliyachirqan
chalapi
chalalan
bonn
anchananpaq
huktawanri
qinti
kamarichiyta
wawasninmanta
niwanchis
ankucha
takichaqmipas
##tarioykuq
##chkayku
israelitasqa
brujo
pagina
##payaqkunapas
##llapaqchu
hermanos
ponce
watanakunku
henry
gregorius
aqtay
vinces
awidul
runamasinwantaqmi
blanco
silandaq
tuktunnaq
wayupata
verapaz
pilku
qoyllur
plazachallanpim
qusqayki
napurunakunam
kayhinata
raqaykuna
кечуаqu
ikitus
mawlli
corape
##llanqataq
awaytiya
qallarisqanpi
suyunchikpi
aypik
celendin
miyusapa
suple
kuchuna
phawayta
clemente
##ικη
natawila
palomino
sichuan
##sylvania
papwa
infeccion
puchukanqa
tiemponpi
llulluchapampa
eusebio
sydney
trentino
rapachu
##huanca
usiyanyapi
templo
warkukuq
novial
munaynillan
bearnpa
jallch
hanak
##199
yakuywa
leipzig
acei
plastiku
umallinapaq
argentina
rasumpa
sirinka
jeremias
umanata
humanos
tiyapuyninkuwan
anthony
qollqe
tansanya
otoman
uxna
anankupaqri
sipawa
kayraykuri
colosenses
alberta
kunkayoqta
qhiswa
ranrapallqa
aleksand
kilugramu
chulumani
kaynimpa
suwankunamanta
ezequi
wallanka
manachayri
county
yachaywasikunan
esterpa
bluki
ethanul
omiste
tonga
pitsqa
marseille
uyaqrinman
qipuncha
hercules
ernest
huhsunqupam
uriqhasqu
yapasqanpas
libirya
campania
kitillinmi
ikwayur
nehemi
selloykuwan
fabrica
pennsylvania
demokrata
aykili
pantanal
corrientes
horizon
impurichiyta
obispo
insiklupidiya
halaykurqan
chayanamanpaq
namballe
charasani
yuguslawya
cambridge
nebraska
zagreb
3n
9n
akan
akunapas
adur
acos
agro
achanta
adolfo
bla
biyu
canta
dur
dol
desar
empi
elo
eche
ecolo
fru
ful
fle
funda
hec
hini
htm
id
iwi
iqay
ikunku
imina
kø
lju
millu
nos
nunan
odre
pinas
ruy
rho
rerqa
tas
tuqu
trata
ukun
ugru
wur
wei
xxi
zor
κε
πολ
محمد
##ou
##of
##lyu
##ltur
##likanu
##swick
##uchun
##yayku
##yanapaq
##ito
##ica
##ihiku
##dista
##ex
##ella
##eva
##eza
##rh
##ruyu
##gres
##cco
##cty
##hana
##hon
##kchu
##kes
##ptun
##punanpaq
##wo
##wor
##willay
##tyu
##tuka
##tras
##quna
##qhu
##vn
##vya
##jon
##20
##ав
##ад
##far
##52
##ол
##им
##bd
##bik
##ημα
##xar
##ان
##ек
##ен
##ιον
##andia
##anchej
##qami
##taspa
##tation
##tales
##chillan
##laz
##pichus
##piraq
##pitaj
##isiya
##mita
##mijo
kallantaq
llaku
llalli
llawar
llallina
##tim
##challa
##chakunatam
##chakuyta
chel
chej
chiqu
##kuranku
##yachiy
##yachishka
##llasuyu
##rif
##riyapi
##riano
##rick
##manan
llaqtakunawan
wachan
wampu
wales
##raqta
##raspa
##rapata
##raqtaq
##wallqa
maza
maest
##qanchis
palan
papaya
pachayuq
anu
anyay
sim
siria
sillun
##anasqa
##anasta
##kie
kaypipas
runapi
simikunawan
##ning
##ninwanmi
##wanis
##hal
##hamed
##havn
suyupas
##illana
##tuman
sumay
##pascha
chaykunapi
mamacha
mamaqucha
info
kil
rih
rivero
qullan
##kunkichischu
##yuqnam
kasa
kashpa
kaspanmi
kashaychis
sachakuna
sard
saune
piura
piwin
anqayuqnam
ayku
ayman
ayunan
aykusqayki
niqen
##esina
##esha
##esto
##ent
manapas
simipim
kananchik
##qura
colca
##hita
ascen
sutipi
sutirimana
qhapana
qhampu
qhapari
wantu
wanchus
wanunku
tac
tapay
tarika
tacu
tapur
##kuypa
##kuychik
##kuyniy
##kuykunamanta
nahu
nawat
##tunta
##mont
comer
compos
qallan
##chita
maypacha
##usqayki
##chasqata
allman
pachapina
pachamaman
ista
istan
katiguri
hinaq
hinaman
hinaptinsi
chapa
chapaq
chakamarka
hatunqucha
kaqpa
kaqpaq
kaqniy
kaqkunaman
kaqkunataq
kaqninkunata
ruku
##cidae
paylla
##payana
##paykichismi
imapa
imakunata
imakay
aqcha
aqra
##rano
##ranchu
karqanna
kamakun
kamarqa
##isili
##panuy
qhapaqkuna
nawray
mansana
manyayuq
wiraya
yachaku
yacharqan
##huta
##huira
urman
urkur
niptin
##alpa
tukunan
quchakunapas
##red
lap
lawa
diccion
divis
##rollo
liu
limun
litro
limburg
yachayku
mundun
lliq
allinqa
allinkuna
allinnin
allinchasqa
##rqakuchu
amachan
rimayniyuq
nispapas
mid
miihiku
tupan
marks
marzo
1800
chicha
chilla
chiwa
chiar
chikus
wikipidiyakuna
rapanuy
##cao
##cario
##tex
##tega
##chanki
jaq
jacha
jaqi
jazz
parma
parispi
##kinnaq
apanapaq
chunwayuq
##coa
##coma
##collo
willakusqan
willakunanpaq
rimakunata
rimarisqan
##pish
wanusqas
buliwyapipas
##chinay
##ayaku
##ayasqa
iskaychunka
qillqakunapaq
rikurqanku
rikurqani
hunukuy
wars
##peza
sunqucha
urqukunap
urquwallqa
##chkarqa
musyaq
muslim
rea
red
regnum
punuq
punusha
kutitaq
kutirispa
kutichirqa
kawsakuyta
puqusqa
cavia
wasitaqa
arana
arca
artis
armen
arthur
##muwa
rimanakuna
puchka
puwaq
unchawsi
##guero
##guita
##qaykun
alpi
aldo
altay
ikwa
uyariyta
qankunapura
##rinan
##tawanchu
##chinakusun
raymipi
qillqasqapas
munaran
munakusqan
antara
antakuyu
atichkan
atipasqa
petra
petit
amiy
amiri
llaqtapusay
ruwakunan
esp
espos
especial
##viri
tipon
ukllan
yupaychasqan
mamallaqtakunap
##olk
yanacha
##raqsi
sink
sinchik
##aykimanta
qullarri
winanku
ayala
##kunawanqa
124
123
yuyana
quechu
quevedo
atis
atmayuq
kunkista
row
116
markakuna
yalawpi
uqrus
ruraqmi
##logia
##iasqa
##iaceae
allpam
allpaqa
unchaytaq
unchayninman
##gate
mullu
nishka
##anpaqqa
antimanta
##bacho
saqma
saqru
saqespa
##pind
ikwaduryanu
prof
baure
kasqantaqa
##cedo
##set
akwayuq
##dua
##duena
tukukuynin
usyan
nega
killamanta
##teros
massa
layakuna
kapuna
kaptinsi
ananmi
##mouth
lugo
lucia
nansa
lluj
tiyanchu
qhawachi
qhawarqa
lewis
rimanakuyta
urarina
wakinqa
wakinchay
yuyayku
siqsi
waranta
eng
enemi
unificado
259
qispichin
##niykichisqa
guaya
guardia
patara
patate
yachaqkunam
yachaqkunap
##cut
chaskinancha
moon
mohamed
rumikuna
pasna
phy
qarquy
##ankupaqmi
ukhupiqa
yawsamaq
ninakun
ninachasqa
kuryu
khis
khus
sonora
apak
aparqanku
##kusqankumanta
abima
qochata
qulluna
kamachiynin
kamachiyninta
purinapaq
asqata
acham
achakuna
achamanta
achallina
churinpa
got
##phy
waqachi
kamachirqa
4000
kasqayta
chaninchaq
chaninkaqta
uchkus
minnes
chantataq
yawarnin
salmu
munaynin
munayninwan
yuraqyaku
##puraki
churayta
churinsi
hunukunapaq
senorta
senormi
waranqamanta
sobre
kaspapis
tom
tola
kitillikunapi
chaqn
hanka
paraiso
waqayta
muyupachaq
chayamus
chayamuqtinmi
##geo
ahinata
##llatapis
watakamaqa
nawirina
yachanankupaq
iyta
beyn
beau
hiros
iniymanta
iniywan
iniyniy
ruraykunaqa
noqapi
noqarayku
pedrotaq
canyon
doug
planita
tela
krusraykuwanpis
huchapi
unupi
willanaypaq
qunuqucha
qunqur
yachachiqmi
kananchu
kanankama
yanapawasun
yanapawananchispaq
nuqata
runashimi
phuku
phutiy
bibliap
pukllaykunam
wayrapi
saraje
chaywanqa
##payasqa
hinaspansi
chinkachinapaq
qhipaqta
uchum
espirituy
akilla
##noqa
kamachiqninkuna
portugal
ikrarqan
khar
kharka
##galpa
partici
ruwasqayki
lanka
villazon
riqsichi
turri
kamachinanpaq
kaqtapas
disposi
irqo
irlanda
qullqaquyllur
willakuyqa
aimara
qurich
1828
quijo
1885
allampap
##rkaku
chirimuyu
yanusqa
1860
patrun
patmama
tushuy
mamani
takispa
1843
wakchakunaman
lloqsis
mirayninmanta
kulta
kururay
imayaykunata
akasqa
campus
jeroni
kawakunapaq
ninkum
460
cercado
1858
muchuq
illimani
lluqsimun
faris
kawsaykuqkunam
derechuyuq
manuelcha
ikrasqakunaman
akunman
exu
qespichi
veneto
chikichasqan
ajayu
kinsakaq
plasa
kawsarirkaku
rikhuriy
bustaman
suyapayaqkunapas
sonqonpi
sonqonkuwan
yupanchik
llapallanmi
palmas
kamaqninsi
walanasta
chaymantataqsi
1815
rurunkunaqa
pillunya
laris
maqchina
rikuspataq
julian
##warqanki
##wuti
tampumach
kichkarusa
##usitur
georges
suwakunkichu
lliklla
alegre
mariduena
##ynski
nuqanchikpa
##mantaqmi
qaripas
1804
antaniqiqpi
shukyachishka
puquchiq
uquri
philipi
indepa
nuknu
primera
muspharqan
musphachina
canada
ford
afrikapipas
asunta
wanaku
salazar
musikupi
waytapallana
muchuchisqa
choco
##iykip
iskuma
sinchitapuni
galicia
founda
rimayninkunam
olga
rispampa
##muksi
sayarisqan
pisqayuq
sayaykuspa
khuyapayay
kichari
qhapaqsuyunpi
kriyi
cheqnina
brian
ayparqan
cultural
satili
aqwayta
wankurisqakunap
donald
muhuqa
iranu
educativo
730
ipb
steven
jaykʼaq
derechonchiskuna
serviciokunawan
bruja
sananchan
arinillas
textos
jarkʼan
karuncha
constitu
##benhavn
pallasqan
phaxsin
##wasqanrayku
boston
vincen
malawi
qulqi
ruraykamaykuna
kawsasqanmanta
sunturqa
musica
husse
luqma
wichari
inkinakusqa
1778
sawsi
tuktunkunaqa
##fuerte
chaskisqan
perdonan
ullunta
hernando
kawsarimpun
watukuq
khuyapayakuq
karlus
jonas
khunurana
acade
yellows
##cticut
uqyachina
oropeza
democra
publico
tianjin
frankfurt
hurqunchik
##ologico
mirayninkunan
standard
jaramijo
tseno
cartagena
jallpʼapi
yiwuti
latakunka
leopar
yayanchiq
officina
brunswick
santiwanis
ikrasqanam
susyalismuman
holguin
qhepatataq
patrick
kuwait
american
komunismotaqmi
qirisankunaqa
stub
muchuspa
necesitan
rikhurisqa
bernardino
chʼampay
inkumin
istiwis
flisqa
katalunya
saywiti
##czynski
distritunmi
lliphllik
documentation
amutapi
sambya
betanzos
cornejo
bacteria
disimripi
kukimpu
riberalta
uyapurata
ninriyuq
yanatama
palawraqa
pruphisyunmi
estreptococica
kongreso
mishikunapas
anjiltaq
oficina
qaraqruyu
rocafuerte
usillum
jefferson
intercultural
onqoqtin
aylluskakuna
rikurisqalla
arturo
mayordomo
iberoamerica
phoeni
zaragoza
palumani
kumpusitur
rabona
juchayoq
phawrika
urupisa
avenida
ephes
riyad
chicago
connecticut
language
imanasaqtaq
ispirituytaq
ingeniero
malasya
wikirikchaq
montalvo
eclesiastes
kamaqillqanninwan
elizabeth
glacier
dresden
smith
yawirka
qutaqayta
reunion
tiyupunti
uktuwri
illinisa
bermejo
murrupun
alajuela
baldivieso
otomanki
desarrollo
københavn
chikuslu
kunkistadur
abimael
minnesota
beynti
hiroshima
douglas
sarajevo
quijote
jeronimo
kichkarusachamanta
foundation
yellowstone
av
aray
ate
ado
aqucha
akurqan
bill
cena
calen
ero
gay
gel
husi
ica
igu
ilia
ipina
juri
killan
kwir
luy
liq
lurin
mec
melo
oco
onu
obas
open
pel
panqa
pele
phani
runku
shin
stra
sikun
sport
tsi
usqan
ugo
ugar
utampu
vulgar
wes
بن
##oy
##od
##len
##sik
##yen
##yer
##ich
##mol
##musaq
##edad
##rer
##rpay
##cani
##ctos
##ken
##wispa
##tisa
##tsiya
##tistan
##qnin
##vik
##vus
##zburg
##fal
##ffe
##ffa
##fdl
##لا
##ик
##biyu
##ɵn
##λε
##아
##qakuchu
##chtit
##laqa
##lasqa
##piq
##palla
##isqana
##kunapaj
##millu
##mirin
kapa
katin
llakiq
llawt
##chakunawan
chris
chec
chillka
##kulla
##yar
##llachiy
##llajta
##riti
##richun
##rikusqa
##rife
##uqkuna
wali
##raju
##ruray
maqan
maray
made
##kaka
pab
papi
pataq
papay
pallana
pales
paine
ann
ant
sipasqa
sikuwan
sipuru
nisqakama
nisqakunaman
kayninpi
runak
runatan
runakunayuq
runakama
runamasiy
haq
hacha
haba
hasta
##mantaraq
hukkunatapas
simipaq
##ninkunatam
##iqman
##hao
##haqta
##illos
yampu
suchi
##iyang
chaykama
chaytapas
chaykunatan
chaypeqa
mamata
incha
inya
incas
kita
quriy
qulli
##kunaypaq
##chum
##chupi
kasunchik
saj
sapi
saenz
pikuna
piwanpas
pimanchus
##urus
anqakunaqa
aypana
ayllur
ayninman
ayora
##chayki
##chaykunata
##enga
qillqas
qillqari
qillqamay
qillqakunayuq
qillqapampa
manacha
manapunim
manaraj
kannachu
##osem
cofan
aski
askay
asanqa
##lius
##ists
killapim
killapiqa
umacha
qhati
qhapaj
qhatiy
##tanpu
wantuq
##chisa
##chisman
##chismanta
uno
##kuyniyuq
##kuyninmi
name
##tuni
##tunku
##monqa
qaq
qapi
qatar
##chikurqanku
maych
##sau
##sai
##samay
sutiyuqpa
dean
deben
pachamanmi
rikunanpaq
isan
iska
##chikrayku
##chiktapas
203
qhilla
kaqkunatapas
sans
sanoya
paykunap
##waychik
aqri
aqnin
aqkamataq
##niywan
manejo
##mpampa
wikipi
urnu
nitaqmi
niwt
nipal
##naw
kuts
qucharqa
##rekur
lava
limpi
yachayninkunata
munaymi
llunku
allintaqa
allinllam
##llank
amawt
aswantaqa
##kankuna
##wid
miz
midi
michina
kawsar
kawsas
tupay
chiw
chilata
uypi
yuramanta
rata
raha
raram
##tewan
##dou
##chanchu
##chankichu
jaw
jaku
park
parun
wayru
wayara
aylluqa
apos
chuni
chanpi
bulivya
##kunapuni
##luru
##luchi
##lucion
willariy
rimariy
rimatam
rimachina
rimasha
buliwyamanta
yuan
yumana
huas
huillka
huey
##puntia
qillqakunapas
kunanraqmi
warm
sunkha
urquman
urqukunata
urqumayu
anchariq
musqu
musyay
##oqmi
punun
punti
kutipurqan
cau
campu
wasicha
arpay
arwitu
arosem
##mulla
chini
jui
juarez
##guay
phawan
alba
alme
awillan
##hanman
itikunapi
ikll
##rishka
qanri
qanra
##tawanpas
willk
munakurqan
munaqtin
munakusqa
munakuyta
munashan
nino
ninriy
antay
atiqtin
atikunchu
puquykunata
misso
ruwakunqa
ese
yupaychanku
intiyuq
quspa
nota
nove
yanapayuq
##ptintaq
kusikunan
sindika
##gow
##mpia
ayata
106
takikunata
limamanta
sutintaq
arichisqa
atska
chuqur
##turya
##ykiq
##ykikunata
wawakunapi
wawakunaman
yakuman
yakutaqa
##gali
145
muga
muhammad
qhen
kuyana
rankin
antikunap
##nintaj
astawanraq
suyay
progreso
nawpaqe
lliwmi
pachapim
bala
bara
chulla
chuwa
chutu
churup
##meri
##zada
##thos
##duccion
utqa
##hora
tukusqan
tukurqa
tukukunqachu
##hunu
##jamin
neqen
qhupiya
qhupuyuq
kapus
##moa
##moj
luther
nankunapi
nanayta
kuyuymi
qhawachiy
letra
legal
rimanakuypi
rimanakuypa
wakinkunaqa
yuyaypi
yuyaymana
sex
factura
##tuwal
210
arak
univer
carre
carpin
carden
qispikusqa
atiyman
245
conta
yachaqpa
saywitukuna
chaskinanpaq
moche
moore
##tish
##tismu
pasay
kashasqan
##uluhiya
log
lomas
kurkuta
kurunku
qotu
niyku
imaynatas
siminchikta
tawachunka
qallariyninpiqa
achakunata
tinkun
tiniqi
##aykurqanku
aqakuspa
jisusta
##gida
nisqanmi
##anchikraqmi
waqachinchik
kasqay
wallakuna
minkasqa
##musunchik
papap
castig
casca
castelo
dawid
junin
##pool
salcedo
unquyninmi
##fico
munayniyuq
pisicha
pinqa
tanqan
tankayllu
sof
##anov
ataca
kitillikuna
chaqlla
kachariy
qharimanta
paratiya
kashanki
waqaychaq
manchachikuy
chayarqanku
chayawita
yaykuspa
yaykunapaq
yayanchis
maqanakurqan
gala
gallo
galata
kayninpa
tarinchik
yachananpaq
yachankichismi
kanata
iymanta
bello
##sharqan
ruruchiqkuna
iniyta
##tsina
ruraykunku
##wasipi
ruwani
fil
yunqa
ullachiya
tiyaqmi
kananpaqmi
monro
wakilla
wakillan
wakichin
umalliqninsi
cita
nuqapaq
nuqawan
mikhunakuna
##heim
##psida
qampas
rimasqapas
achuq
achki
ikakunata
ikakunaqa
bibliapita
kankichej
chaywansi
kapchiymi
325
llikap
chinkachiy
chinkapun
chinkapunqa
##desh
qhipagradu
vacas
##carra
sunqumanta
sayapa
##ment
##kinakuy
pirqam
##vard
##quita
indihinakunata
kusata
porqui
1894
ruwasqana
makiyuq
##ykichispas
khata
khall
khara
khatata
palaw
pakallapi
king
rimaykunapinam
##risqanta
366
riqsichiy
turay
turismo
llakikuna
##chasqanta
##chasqankuna
isaqa
santukuna
sergio
##purina
interwiki
yayallay
millones
qaramanta
willaniqiqa
matematicas
chiripa
kachimayu
yanuspa
##pusqanku
pachamanqa
aswantaraq
mosoj
parlasqa
awarawi
##chayuqmi
##venir
##banu
1840
##sota
nisqawanqa
imayaymanta
thapay
unakuna
unapaq
unakunata
pulisiya
llimphiqmi
##derna
phinasqa
ruruchinakuna
karanka
##chikunman
##loro
cerron
##pery
chukiyapu
##iquote
nawinchay
norman
lluqsimunqa
atuqwan
atuqrimachi
llumpawan
nunakunata
tunisya
##folia
muruchan
kamachinakuna
kamachinamanta
kristiyanukuna
kristiyanukunapaq
inlisyap
inlisyata
expe
chimpay
chimuriy
warmallaraq
asia
wapsim
winananpaq
aynina
plato
achituta
kawsarim
mamaykita
##basta
yarqachikurqan
qankunarayku
sunquyta
suyakuynin
sonqonku
kamaqninmi
kamaqillqa
nuqaykupas
urmarqan
urmamuq
urmachiyta
larq
melbourne
caldas
punapi
phuyutar
paqtachi
harrison
napaykamuy
sunqunpi
achkiyta
paqcha
hampin
iqtayninchik
parawayipi
mancharikurqanku
mikhurqanku
mikhurqanchu
waqachiqmi
suqtantin
chinchilla
##niykichista
aleut
pensa
nanaywan
yuyarispa
cristianu
quchup
nuqanchikqa
##tsikta
wawayoq
##kichikchu
wamanqapi
raphran
kanadapi
alfonso
regione
##jtinku
witna
ulti
lloqsimuy
wajya
yapamanta
pachamamaman
romanukunap
boris
wanunmi
qochapi
qochaman
palabraqa
empresaq
mistikuna
680
1793
comunidades
costu
kallpachakuy
hinaya
murira
sacerdotes
khuyapayayku
huancayo
marakay
aypalla
asqanmanta
uyarispanku
helena
qasilla
tullpu
policia
empresaqa
gonzales
qalamarka
qalaqutu
puebla
chusku
thor
chupaka
##diospa
qullqisapa
basel
galileamanta
hurquspa
antawayllacha
tsemi
kasarakuy
qhasqun
waqllichiq
ithi
hamuychis
peterburg
consejo
listritupi
takakuma
pallqaqucha
##hamad
waqaychasun
iglesi
rikari
jatucha
estudios
suchuqkuna
##kuchkanmi
caballo
killkashka
weber
silandapi
gaston
hebreo
ususiy
##riktur
yawrinkuna
irqikunapa
onqoyniyoq
quintana
##arembo
misiones
shang
##rqunku
piemonte
chachapuya
##ricano
unchawninkunapaq
mawka
ismuruku
gracias
ripuspa
egiptomanta
doris
uriondo
qhelqasqapi
pinsha
kawsasqamanta
tistamin
samanku
pirqana
sipris
inneqpi
qataqura
##bayop
joanne
##kuyarqan
maymantachus
cheqnikun
nikomidya
unchau
levitico
##ptiykiqa
taiwan
shipibo
institucion
##bljana
dibuhun
miranda
maryland
americana
kansillirnin
ipayanchik
qorpacha
atisqachu
carcelman
morelia
kausanankupaq
florencia
##seldorf
maximi
beach
eugenio
cuellar
chaqruspa
chhukruna
makabayop
kallantaqmi
ludwig
hurquykuspa
puystu
mamitan
mikhail
occiden
alabama
qonqoriykukuspa
dusseldorf
wycli
sabado
chiruki
pinipi
opera
witichi
ladonpi
cabanas
conaie
gallegos
foot
respirato
qurwara
divor
tikipaya
alcides
profetakunaq
cristianuno
sikritaryu
tenochtit
superior
qurupuna
aristotel
tsalaki
teqsimuyuntin
yaminawa
saduceo
kuntistarqa
ballestas
houston
asamblea
metropolitana
vladimir
aphruasyatiku
gibb
horizonte
biyubiyu
echeandia
ljubljana
πολιτ
chelsea
qullananchikpa
tacuarembo
compostela
divisor
rowling
##pindinsya
kapunakuq
exupery
sikuwani
aylluruna
niwtrun
raramuri
wayaramirin
arosemena
awillanu
missouri
qhupiyapu
qhupuyuqnin
tenochtitlan
7n
ax
auq
akunapaq
age
avar
apanku
akunanta
achisunchik
br
bes
blas
clo
crus
ceb
duna
dong
dales
eq
ema
eden
eric
fur
guy
huna
hanqa
iz
iqu
ile
iqana
ichanapaq
itha
iwicha
jinan
kor
kris
kʼu
kʼan
likan
mn
mp
oqa
oxi
pm
piy
phan
qʼ
ruri
roq
sqa
schu
spin
tunki
ulli
utiy
wist
xin
yukay
αν
케
##oza
##lyn
##aza
##uan
##uel
##uela
##yayuqmi
##yunal
##yelpa
##ido
##ium
##num
##nunta
##dinan
##dino
##dling
##mel
##edi
##ega
##eba
##ecio
##etano
##rquy
##gno
##guria
##ctan
##clo
##cona
##coro
##kpi
##phin
##puka
##wqa
##will
##wanaq
##tzal
##vision
##jkunaqa
##80
##2n
##fin
##°00
##ир
##bun
##αι
##15
##xta
##ᅮ아
##λα
##οκ
##어
##추아
##ελ
##antana
##anxi
##qapa
##unkuna
##undi
##taria
##chha
##chukuy
##aypa
##ayninta
##ayninkuna
##lai
##lap
##unata
##unaka
##kunacho
##miki
##milia
##miyun
kaf
kalli
kampu
kapak
kakaw
kakuchin
##maqta
llah
llachay
llawi
llahta
##tita
choq
chukuy
chillan
##kuchkaptin
##kushanku
##yaca
##rillu
##rianu
##rillos
##manchi
llaqtatas
llaqtamasi
waturi
##ikoq
##ikunku
##rad
##rachina
##razo
##wala
##wall
##usca
machi
matara
##kachun
##kapurqanku
papan
pamp
pash
paria
patay
ankay
siya
sion
siqay
silis
siena
sipina
##kipa
##killapa
kayma
kayniyuq
kaytapas
kaypachapi
hal
hamushan
hukpa
hukman
hukpas
##sqapas
##sqataq
simimantam
##ninchiq
##wankichu
##hard
suyuxa
##illca
yaka
yalli
yarawi
##tua
##tuto
##ture
##tuck
##tubre
sua
supa
suwaq
##pasyunkuna
chaychu
chayas
chaykunaman
chaypaqqa
mamamanta
infan
kima
kirun
rikunapaq
ripuq
watakunaman
quqta
qumu
qumas
qutus
quruy
##kunayki
##kunaykichis
sah
sahun
saruy
pitapis
pied
pixar
##sic
##sichus
##urs
anqam
ayninpi
ayninkuna
aysana
pruwinsiya
niqllapa
##kunatachu
##kunatawanpas
qillay
##enas
##enda
##ense
qillqakunapi
manakunan
##llapipas
##tinllapaqa
##erin
##quista
##osur
##hirka
aso
asiy
asikun
asikuy
##lic
##lip
##lian
umata
##tanu
##tanan
##asis
##asyun
##aswanpas
##asunkichis
##chiskunata
tau
takay
unaq
nati
naci
##monpaq
##chirka
maypis
dela
desi
decla
pachakuna
riksi
rikunan
iski
ismusqa
iskri
wikunku
hinaraq
ichapis
chami
chaco
##cidad
paqarispa
paykunam
paywanmi
paywanqa
runakunamanmi
##tografia
aquy
aqchi
##ulio
##puchkan
kamachikun
llaqtanpa
inkiq
inkikunap
qhapaqqa
qhapaqkay
##mpaki
wicharqan
yachasunchik
yachapakuy
uruna
urmiyun
nil
nipa
niqta
niwanku
niwaqchis
##aldo
kumpi
kumara
kuczynski
quchapanpa
##recht
latina
latinapi
diver
dirich
lito
liver
little
liguria
yachaykun
yachaymantapas
llo
mayupas
##llanpaq
##llanchik
amaku
rimayan
rimayku
rimaypiqa
rimaypim
##kanta
##willa
mir
tuti
tutan
tupun
tumina
markuspa
chia
chipin
##usawru
yurakunapi
##dala
##dapi
##dacty
##chiyman
##chiychis
ratata
##catan
##cabana
##mpe
jahuira
parlana
rurakun
rurarka
ayllukunaq
apps
chang
##coto
##lude
willari
willaa±
diospuni
rimaqta
rimakunam
hukllachu
##chinka
##chinchu
##chinkichu
yupi
yupaspa
yurua
huma
humani
hubei
kawsaypas
##ankuman
rikuchina
rikuspanku
huntasqa
##llaqtapi
2019
muspay
revi
regal
reforma
recurs
puni
punkun
kutimunqa
kutichiku
capa
cato
caque
camino
cadena
arina
arkan
artes
##mum
juchan
judiyu
judaspa
unchawpim
unchawninkuna
##mbus
##qayki
taray
itimanta
iklis
qanpas
qaniwa
##rine
##rinankupaq
##tawanqa
raymikuna
munarqachu
ninqa
atipasqan
suyukunawan
ruwaran
##vili
##viejo
tiri
tiro
ukrus
15chay
yupaychanapaq
yupaychaspa
chash
warmikunamanta
warmikunawan
qusan
##marck
nok
now
nobol
novie
yanaq
##kunankama
sayt
##aykiman
ayapata
##dema
##desqa
##kuspapas
mikhus
mikhur
108
takita
sutinkunata
vicu
view
vieira
##ninpim
##kunapaqchu
wakmantan
atle
rous
rojas
112
yalata
boca
musuqya
##ykichej
allpakunata
allpapura
##hiniti
##kunamanqa
165
muhiniti
nisan
qhur
qhilli
##anpaqpas
tiyakoj
##bach
##bacte
saqiy
saqsay
##pinan
##pinku
tarirqanku
tariquia
nutis
nuvo
suyan
suytiyuq
nawpaqqa
##chanas
##chanata
132
##punichu
inkapi
llanu
llanth
kawsaqkunapas
baque
babel
bambi
bapt
baile
chuqa
chupasapa
ortografia
##mea
##meta
##zawa
uywaqa
nirqanmi
nirqanchu
mitma
akchiq
##kunatapash
##kuspas
utrecht
##hoku
killawat
karqaspa
maskaq
kachkani
ananea
qatilla
nankuna
qillqasqanta
##isaka
##isaca
tiyanki
tiyananpaq
shaanxi
leche
leyi
leop
lepra
##chisqanmanta
rimanakuypaq
ural
yuyayyaku
griego
llapantiyki
seco
facto
waqrayuq
##lluni
waranka
waranway
kuyuchinayuq
enc
engel
qispilla
guay
##nipi
mishikupa
atinichu
atiymanchu
240
230
pachaknin
confia
conosur
patata
yachaqkunaqa
##qtinchiq
rumiwan
rumichaka
rumiqullqa
pasan
pamparahu
305
kashajtin
phuy
phuk
philli
qaranpi
##ulum
local
loire
rimanchik
##kusqamanta
##kusqachu
ninaq
kurwa
apamu
apamuspa
apallaway
##kusqanqa
abo
qosqayki
biblio
27anqa
jerico
imaynalla
kamachiyman
260
pukaram
qallariypiqa
rurasqam
rurasqamanta
riqsina
winarqan
delgado
tinkuq
awqaqkunam
##gias
churinpas
god
nisqankamaqa
ruwaykunamanta
allipuna
allichanapaq
##anchikta
amisqa
chaninpi
paqarichisqa
paqarirqani
popu
pukllaqsi
daule
brasilpa
salv
salina
unquyninkunamanta
munaychata
yuraqchamanta
pisichan
pino
##puraqa
hunum
barbu
waskar
ujnin
tantiya
solier
todos
tohoku
kacharisqa
qhariwan
hans
##uqullu
republikanu
kashankichis
muyupi
muyuri
chayamusqan
maqanaku
tantay
nawikuna
yachankuchu
beij
hira
higg
##tsch
##tsikun
##cherqanku
yaqariktur
##kunkum
ruwanqaku
indipindinsya
illwa
illikacha
plane
yunnan
joe
joelpa
challwata
##guro
##kunataqmi
chiqalu
paykunalla
huchachan
huchachanqa
kusikuspa
##caste
kananpaqqa
mono
unucha
unuwan
hoqarispa
andal
panallaykuna
yachachiqkunaqa
##cker
nuqap
nuqaman
qamkunamanta
qamkunawan
achille
pisqupampa
##gencio
##bola
aquchinchay
benjamin
wayrap
##payarqan
waynaqa
pusan
puskan
karna
##iyula
##dens
unanchana
phiwri
philadel
challwakunatam
328
##familia
inao
inapaq
ashta
chikyan
runallaqtap
reynin
kamachiqnin
##guadero
##menez
perdona
maqanakuypa
##tores
##varo
##quira
aspicha
352
354
santiagu
kamaynin
porvenir
tutamanta
tutallamanta
ruwasqankumanta
puriqllam
ariymi
kinu
kachkasqa
##ishanku
turkm
##qhana
muruna
kaqtam
kaqtataq
iqchi
347
kuntiman
hermosa
iruyuq
yachachisqanta
hawanmanta
qarachi
ukhunta
willakuytan
online
air
quicana
nihunpi
chiriwata
kachichaq
##pushan
1869
moro
patria
charin
charish
parlaq
graduyuq
##muyum
miraykuna
imankunamanta
jaywa
##ongji
estadoqa
imayaykunap
akak
pulunyapi
llimphiqninkuna
tantanakuypa
campana
nisqapta
punchawkuna
karanku
karanki
karanllapa
qonqay
sunim
1855
anasta
yuyasqa
sipascha
##iqucha
nawinta
nawincha
nawinanpaq
lluqsimurqan
tradis
qhesa
440
machkha
kapunku
aytukuna
nawpaqtaraq
shimikuna
shimichaw
chaynapi
chaynalla
chaynataq
muruchata
uyariqtin
noqanchisqa
rantiq
raphimuyum
sikra
wapsikunam
##onicen
pilikulapi
##estre
ispanulkunaqa
pinchikillachana
achita
##burgh
rimasqankuta
minas
minaqa
trucha
ishke
rakisqan
rikhuriq
bush
qillqanmi
qillqananchikmi
sonqonman
sonqonkupi
palmar
usaqchay
1818
1819
rakiynin
ancharnin
admin
tulluwan
rakinkunataqa
qillqanapaq
sunqunkuwan
achkiymi
great
maqlluq
##puqtin
purapi
kinrayninmi
putumayo
00°00
mayqenchus
chukulati
geneve
waskaqucha
yupama
killi
pens
ispiritun
##tsikoq
##kichikmi
1808
1802
1801
simonpa
chhikaqa
##jeria
johnson
qhipanpiqa
##jtintaj
derechonchikpipas
qhawanki
rayan
bordea
canas
forma
formosa
##qusqan
waylluy
casarasqa
listap
huknintaq
salado
edin
edgar
1792
iskultur
muksichana
##wankichej
hillp
fariseokuna
fariseokunaq
qhapaqsuyunqa
qhapaqsuyunta
wanuchinankupaq
british
wachakurqan
barcelonapi
yarpuy
##kuchunchu
yupaychanankupaq
empresakuna
kaqwantaq
##wski
samincha
saminchasqan
rakinakuy
uyariytawan
sisal
atiyninwanmi
atlantico
qullqin
respetan
hisustaq
basti
horno
luzuria
kashaqtinqa
bismarck
wateqan
wateqasqa
almagro
israelita
israelitakuna
brujeria
aytipi
qhasquy
sananchasqa
wirp
wirriy
laqhi
laqhaya
enriquez
kachkaqraq
itza
yachasqanku
yachasqanchis
rikuchirin
fritz
huayna
khillaych
khillaynan
pariwanakuna
768
rosas
rosales
wiksachaki
ladoman
nawpaqmantana
wawqikuna
kalba
inkarriqa
llamkaykunata
yanapakuykunamanta
chaskiyta
##kawur
huchhamanta
maintenan
ukhuna
vaso
##kusaqku
kentuck
urqukunan
octubre
dimukrata
qatiykuy
katalan
katamayu
nesqamanta
thunichisqan
jacobpa
ronald
makisapa
sawna
sawkari
williams
titupaq
poesia
tupuypi
chilina
llaktakunapi
capital
mujutaq
qarquspa
umpuy
kariwa
##masikunapaq
hamusqaykichik
piedra
1521
portoviejo
yamkiy
brook
mungulsuyu
cuerponta
palabranta
palabranpi
uqhari
gloria
miyil
ochukun
copacabana
rikunchikjina
liwtu
cuenta
cuentata
yurisqa
zuid
tusuqmi
apaykachanam
jobqa
##glades
##karara
ikranaykipaq
ikrananchikraqmi
raprakunayuq
michel
aknalla
cundina
gronin
kutisqa
kutispi
musuqchasqaqa
sinagogapi
bruniy
falcon
##qayara
santieste
anawkunap
hansuyupa
##masiykuna
salamanka
harawin
wankilli
guanacaste
kriyiqqa
achiksamay
wiraqocha
saywanpi
translate
khota
katalunyapi
llunk
wayqey
ichkiqucha
llasatura
maximo
llaptapi
desaguadero
chorrillos
integrado
colima
iskuyla
cornwall
waskhaqucha
hilario
huamanga
qiqllam
qhincha
callao
vizcarra
fiestata
britanya
sitimripi
1438
tukukapunqa
dinusawru
yuskara
suɵyuq
nacesqanchik
indigenas
chimpansi
deuteronomio
navarro
parququcha
##suykichispaq
qarqusqamasikunapaq
irraminta
kipru
regist
awrilpi
soldados
kyushu
qumlik
takupaya
mushuq
ninantan
sutisuyun
tesalonicen
podcastpi
umberto
huanuco
aeropu
achanqaray
embera
glasgow
pimampi
nikudi
armando
genova
wauqentin
everglades
iguallataqmi
zuniga
christoph
infierno
takarpu
recife
challwamayupi
sanampanqa
ernesto
pilkumayu
suplemento
ezequiel
insiklupidiyam
dolor
eloy
ecologica
fulgencio
hiniral
palanta
istanbul
diccionario
warszawa
amirikanu
participasyunkuna
farisiyu
bustamante
philipiyuqkunapaq
satiliti
vincent
qaraqruyuwa
ephesuyuqkunapaq
chikusluwakya
pablon
palestina
yampupata
quriyunka
qillqamayt
asanqaru
debenchik
puntifisya
qotuchakuy
galatayuqkunapaq
citaray
wycliffe
football
avaroa
likankawur
케추아
kakuchinkiman
quruyqu
piedras
pixarwan
dirichuyuq
liverpool
recursos
noviembre
vicugna
nuvola
beijing
higgins
philadelphia
turkminsuyu
bordeaux
luzuriaga
maintenance
kentucky
santiestevan
nacesqanchikmantapacha
케추아어
achina
amo
akunaq
apaspa
ataqu
brus
bing
cd
caya
clia
css
disip
dusi
evi
empal
fas
febre
hano
ichay
itan
ichik
ikuq
ikuspa
ininku
ichikun
jal
jaya
kwin
key
krup
lik
mayuq
nelson
ot
ps
psi
pulu
qunku
qorqa
rm
rqa
ruya
rhein
sz
star
spor
thi
trin
tyi
tene
uu
uf
ukunapi
upu
uva
ukunapaq
upsi
upuraki
vina
vul
wiqu
wiyula
xbox
yanta
zo
zhu
αγ
μα
##ot
##liy
##ak
##atu
##aca
##ser
##smayu
##stis
##syapi
##sburg
##umi
##ual
##ugu
##yna
##igi
##nill
##nani
##mispa
##eg
##empu
##etts
##rona
##rhein
##gman
##glo
##glia
##gni
##ggio
##curo
##hr
##kre
##kej
##kisa
##kikama
##psa
##ppo
##wista
##tx
##tman
##tmund
##qpi
##quspa
##jqa
##juna
##ак
##ал
##zor
##zza
##fs
##fon
##fano
##falen
##fono
##fast
##له
##ван
##ль
##blan
##bria
##μη
##07
##xx
##ер
##ισ
##οσ
##ananpaq
##anne
##taya
##taro
##chos
##chel
##inchu
##inia
##lares
##pallu
##parinku
##isu
##ison
##miran
##mire
##mite
kah
kaka
kachis
##maqa
##machay
##machi
##mampis
##tio
##tikuna
##lls
chiya
cheng
##kuku
##kuri
##kukuy
##kullu
##kutaqmi
##llah
##llami
##llapan
##llamanmi
##llapunin
##ripa
##uqtin
llaqtakunapaq
llaqtamanmi
wachay
walin
warawa
##ukani
##usmanta
mac
maj
machay
matan
mater
mapiri
mache
mamantapas
mahua
madis
##qankunaqa
##qankuchu
##karqan
##kapusqa
##kachispa
##kamusqa
##kamushan
pawa
pago
pajan
pallanqa
padilla
anya
anman
ankunata
antaq
antig
anchik
anpay
antes
angula
siri
nisqawanmi
kayri
runatam
runachus
runamanmi
hamuqkuna
hainan
haji
haraw
hamusqan
hacien
hukniyoq
##sqaykichis
simiq
simikunam
##ninkunawan
##wananpaq
##hat
##hawa
yau
##tud
##tulo
suph
suerte
##pasun
chayay
chayninta
chaypaqmi
chaychika
chaykamaqa
mamaqa
inisqa
inuk
inwan
insi
inei
incien
inasyu
riti
ries
river
ripurqanku
right
watapin
watayuqmi
watayoq
qumi
quwa
quer
quil
##kunsi
llamayu
kaska
kasway
kasukun
kaspaykiqa
sad
saul
saruma
saska
sagrado
llamkaykuna
pita
pius
piero
pillapas
pipil
##siri
ayninwan
aychanta
aykusunki
##kunataka
##enta
qillqaya
qillqayuqmi
qillqarimun
manari
managua
manakurqanku
niqintaq
##llapichu
##aron
##erdo
kane
kantaqmi
kananchikpaq
kansai
##quwa
coi
codi
collana
asana
asnan
askh
##lima
##liana
sutimpi
##urata
umam
umalle
qhatukuna
qhawanku
wanuya
wanusaq
wanwara
##maych
##chispuni
##chishpa
tapun
takaq
taram
tariyta
uniy
##kuy2
##kuypaq
nac
nabon
compan
qatuy
qapar
qatispa
##chimuy
##chiwanchik
maytaq
##sasqa
allay
allqay
pachataqa
pachatapas
ishan
istri
##chikorqa
katiguriyakunaqa
hinapis
hinataqa
hinapunin
ichaq
kawri
chad
chari
chakunapaq
chapak
##oron
qhil
qhiti
hatunya
kaqkunapi
kaqkunataqa
ruphan
sani
sanp
sanay
paypas
paypaqqa
payllapaq
paykunapaqqa
runakunamantaqa
imataj
##wayta
##wayoq
##torio
##torial
aqus
aqkunaqa
aqwi
aqkunamanta
aqkunatam
aququcha
aqnata
aqninkunaqa
##pullu
##unanmanta
kamacherqa
llaqtampi
llaqtankunapi
qhapaqpas
##kayan
wiwa
yachapa
yachaspan
urdu
urquy
urpuna
urmiri
nich
nimurqan
##alo
##ale
kuma
kuwi
lamay
ladu
pukina
dili
dias
dire
qhichwam
lip
liwi
limb
liryu
lirqay
llosa
allinman
allintaq
allinchan
allinqhapaq
##rqapun
mayuta
##llanki
amas
rimaypa
rimaypas
aswanchu
tukuypaq
miku
mick
chiku
chiqanta
uylla
yurapas
##dara
##dakunata
##dadukuna
##riytawan
##chiywan
rad
razon
##caca
##teria
##kuqpas
jamil
parl
wayn
wayraq
waynu
waykuru
##kinka
##kintin
ayllup
ayllukunaman
apunchik
haykun
haykuspataq
##com
##color
##luca
willaway
willakunaqa
diostaq
diosniyoq
rimachkanku
rimaspaqa
rimashka
huanta
huila
##punis
munisipyunmi
##chusetts
iskayray
kawsayniykichis
kawsayninkumanta
rikuchikun
rikukoj
rikuchkanki
hunuka
hunuspa
hunyupi
warina
##chiqchu
##kichisman
musikuy
museo
regio
punkunta
tiyanapaq
kutiriy
kutimunan
puqunku
qallarisha
qallapurina
cada
cahua
caesar
cavero
capac
anallu
wasiwan
wasipas
wasikunam
wasipiqa
wasipim
##kunamantaq
##aytawan
##aytapas
aris
arches
##mud
##muru
chino
##chunmi
unchawkunap
##guey
##mbaya
##qayan
alqu
alfe
alfa
alcala
tarispa
tarpus
tarpunku
tarinapaq
itipiqa
##rista
##risaq
##risunchis
##rinayuq
##rinkichu
miki
munash
ninrin
atirqa
atikuq
atiptin
atirqankuchu
atirqachu
atiwaqchu
atiwaqchischu
##qiri
##munqaku
peqa
peten
##ikaq
miskitu
ruwaptin
ruwasha
chunkata
esca
escen
escla
tic
tipi
titan
tijra
tiranu
tiempu
yupaynin
yupayniyuq
intipa
intimpa
intillaqta
##marra
nombre
noticia
##olulu
yanapasqan
##raqcha
##kunanpi
##kunankam
sayaspa
kusiyta
sintapi
sinoqa
##aykillapa
##shun
kikinmi
winchu
winayta
ruruq
ayamaych
##deen
##kuspam
imayoq
imayoqta
mikhunankupaq
hanaqmanta
limatampu
vias
quetzal
##lem
##muqu
wakchay
atisun
##yannaq
##durria
karuman
chuqus
wanupun
wanurqanku
wanuchana
ruraqkunaqa
boa
boy
bour
boyaca
##iao
##ykirayku
wawakunantin
yakuri
unchaypitaq
1600
##sinki
riqyunkuna
muller
muhamad
tiyakurqa
saqer
saqrata
saqillan
saqey
nup
astawanmi
suyuy
suyasha
##marapi
qhawaykachay
nawpaqninpi
taytakuna
taytamama
pachapichu
##punichus
inkaqa
inkakunaq
inkallajta
##veira
baw
baden
kasqanchis
kasqantapas
chuzal
orle
##met
##thera
uywakunapi
uywakunatapas
mitmaq
akya
pawsa
##kuspanmi
##wart
##hoyo
sapachaq
tukuptin
##huni
usut
##quya
winaypaqmi
rimaqmi
rimaqkunaqa
##jara
nei
karqaptin
qhuchu
kapti
kaphiy
##mour
lucio
lumpaki
qatipay
quwikibooks
nano
nanqa
nanninta
nanaykuna
##muyku
jinaqa
jinataj
kallpaq
shallka
qhawasharqanku
llapapaq
220
yuyaynin
yuyaychakuq
##trix
##tricion
sey
sean
sechin
sector
waqmanta
waqrayuqmi
munankuchu
tiyayku
tiyaynin
arampampa
enqo
##pataman
unichina
carna
##kurqanki
##niykiwan
atinkuman
atiypas
atiyninmi
joseqa
pachakta
patas
patamanta
creeq
chaskinankupaq
moque
##rusqan
pastaza
301
wallina
ukhupin
braban
rimani
rimananchispaq
perupi
apari
apachanapaq
apamurqan
apamusqan
##kusqanmi
##kusqantapas
abdel
qoyku
##llaqpuni
punuchiq
runappas
kamachiymanta
268
##quni
siminwan
hinaspaqa
hinaspataqmi
winakusqana
achalli
##mpuma
##jinalla
tintin
##llanam
aqamanta
churinpi
nisqanwan
298
##phen
pachanpi
ruwayku
ruwaykunawan
cheqanta
waqachisqa
kamachiqa
kamachikushaqtin
kasqaykuta
yachachiymanta
chaninniyuq
hampikuna
dyusninchik
uchuq
correa
paqarimuq
mini
ministi
pobla
##musunki
cascales
##runku
dallas
darien
junta
jununakuy
##poxtla
salvia
salzburg
yuraqmi
pisimanta
qaysa
barra
wasancha
ujya
soli
kaspam
ransiyap
torillo
kitillipipas
##ristan
##ninkupas
jatunpaq
kacharpa
kacharpari
simitas
antikunapiqa
manchakuywan
chayamushan
##gelio
maqanakuq
maqanakuspa
ahinapi
gabor
##llatas
kayninqa
tarinkichis
##kuyninwan
nawirisqa
yachanchik
kanaspa
qosqan
##tuyki
rurukuna
iniykama
##tschua
##tswana
noqataq
yaqapis
##kov
ruwanaykichis
indiku
fidel
planeta
##kunapax
wawayuq
temb
kurkumanta
ukuch
##leswig
krusiru
sonqollan
##phila
##phiya
chiqakupi
paykunaka
huchakunata
andra
andino
hamuchunku
inupura
qunqar
yanapakuyta
nuqamanta
runaswan
##ʼasqa
qamta
pisqukunaqa
##geno
##gent
aqupiya
aqutanku
benfica
bendicion
wayraqa
wayrawan
sarap
sarata
saraguro
nunun
simikunallapim
pusaspa
karru
lluqsispa
wisinam
wiskul
ferdinan
##ikunqa
challwakunap
322
wirasapa
##culo
##cultura
nassau
kamachikuynin
rakiqun
nacionkuna
vaup
wampuq
reypa
##carre
wawankunata
valera
qullqiri
sayachi
watiqay
##pinataq
antoni
berkel
pirqata
pirqakuna
##quil
aspimanta
355
libru
portu
porras
portal
tutalla
ruwasqanmanta
runtuy
makipi
makiwan
heil
hebei
##rong
palacio
pakasmayu
##musqay
kings
kachkaptinqa
ruwasqachu
##kurqaku
362
huwanchaqa
turqu
llakipampa
puriynin
muruni
ayniykikunan
purini
shon
ukhupitaq
irpa
irma
irukisa
yachachisqanqa
yachachisqankunapas
yachachisqankunaman
reqsis
337
yayaqa
##zoa
##zow
millon
##tenberg
qarampuma
liwrupi
liwruchasqan
qelqata
quripata
qurikancha
quijos
430
##kunanpaqqa
##kamaya
lampati
##rqaniku
##pusunki
newton
makinman
chakata
chakalta
tusu
sasachay
charanku
##venta
zapa
zapo
unayna
##minacion
hamunchu
ruranakun
estadopa
municipal
benito
##canu
##cancha
thaw
thamin
jimenez
##kuwanki
samakuy
samarin
##gosta
kallarqan
awqaf
##kusunman
kallpachana
bang
bandurria
wakarpay
duarte
##suyo
##suykita
1851
inukup
cristopas
##jira
churiyki
##chikuqkunaqa
saqraman
lluqsirqa
harawita
qheshwa
partidukuna
kekan
kecu
ketschua
kawsaykuqkunap
tunu
tunay
tunga
aytumanta
waqyachi
davidqa
chaynaqa
upyan
velaz
kamachinata
bautismo
370
iniqnin
395
uyarirqanku
exp
ilandapi
##chirqaku
lukri
upallay
asiri
asiruqucha
sikwanka
##onico
kaqtintaq
lincol
sipita
##urasnu
platon
##waswanchu
atipakuy
##bury
minakuna
mamayoq
korianu
yarqachikurqa
qillqanwan
llapallanku
center
ipiy
triyu
trigota
nuqaykupi
nuqaykuwan
malwina
1813
1811
wiraquchapaq
mikhuykuna
mikhuykunata
lare
chayllachu
chayllaraqmi
micham
##puqtinqa
guainia
mancharikuspa
kinraypi
yanqapuni
rawraq
chaninchasqam
yachachisqay
noqaykupi
noqaykupas
nevada
mikhuchin
ampara
balzar
##zebu
chimpachikuy
riychis
allqamayu
780
penar
unanchachaqa
rikhurinman
isipi
hampikamayuqmi
juchamanta
kuskanchaku
salvasqa
clase
##ceso
chiqllan
chiqnina
chiqllarahu
orqopi
yawrikuna
180º
##chenko
runtuta
prutistan
wallqanqacha
antaniqiqpa
shuktak
##llarqantaqmi
qaparirqan
carajo
kusituykuna
ishkayniyoq
yupankip
##orod
puquchisqan
philimonpaq
machachi
allquwan
allquchay
lord
silq
jesucristoqa
606
altumisa
lloqsirqan
borg
fort
kasukuspa
lawren
esteban
awstiriyapi
casarakuy
anakikunapas
qhepantin
685
ullaya
1795
520
tupiza
##ananllapa
atiqchu
ilv
justo
hills
khuyapayasqan
thumb
thuqay
chillca
chillkin
wilson
churaykun
##rquspa
pakcha
nicodemo
qiwlla
akiymanta
##chiwananchispaq
wanuchinqaku
animalkuna
kaqtaqmi
##kupaschu
chuqui
chuquisaca
uyarispan
yarpacha
nakariy
nakasqanta
anapaqkuna
phisqayoq
desnu
الق
الله
##trand
chuschi
educativa
964
tatanta
##kojqa
matiyu
alliykuy
alliykuq
atlanta
atlantida
base
stewart
qallayuq
999
bisunti
burundi
belfast
young
##erial
wateqa
watejmanta
wanuqtin
puquqwata
yanapanakuspa
serviciokuna
paginas
richmond
qhasqu
mataku
consul
khillaymanta
upyanam
ross
wiksalli
1542
espanoles
742
maqaypi
noqanchiswan
721
yanapakuykunawan
amanaku
bosque
egip
ayqispa
patronanmi
aguaruna
estudio
chhulla
urqhu
andrea
tiqsimuyu
##untains
llanthu
qatiykacha
##kichejchu
1770
qullpachaq
dumingu
umaypi
muyuntin
bremen
##emite
editorial
uranpi
llamiykurqan
##taquio
##aranllapa
chinkananpaq
perdonana
wamrakuna
shanxi
shandong
##ushalay
qayara
phisu
casado
iwriyukunapaq
kolkata
ismuchiq
teodoro
diyablu
schleswig
##kunanataqmi
allpankunata
rejs
suyunchikpa
ankallikurqan
928
dortmund
mayqanpis
ratulla
glori
global
trento
sakisili
llukll
qispichiqniy
terminokuna
acadia
honolulu
westfalen
##ικα
pagador
pampachayku
##ptiyqa
tiwlliyuq
kunrisun
nakʼari
janaqpacha
kons
##morra
mamallaktapi
kikillantaq
1631
tukukuyninmi
hurqunku
##ologica
iowa
##krit
infectasqa
inneqman
imamantachus
uqhukuna
montreal
derechoyoq
##jesustaq
uraykurqan
1582
eustaquio
nikodemo
sprin
anaychay
esperan
boteman
holstein
taipei
patrimonio
fransiscanu
yuyarinachasqa
##rupaja
necesita
morazan
derechunmi
plurinational
ipayanku
qesh
qespin
llallagua
wiraqochay
chakrayoqqa
##choacan
chukiqayara
entienderqankuchu
oaxaka
llasaqmi
llaqtarunakunapaq
anhilqa
alvaro
saywitun
biobio
valentin
clinton
pacienciawan
##illankutaq
sucedes
##lization
apullikuna
jiangsu
jiangxi
ichuqa
##aries
##ctionaries
waqyaykuna
hitler
hitlerpa
tunquri
branco
kawsashaq
medicina
butanika
biał
droga
##tepeque
##tepequez
uyariwaychis
pukllasqankuna
achuni
glur
wawitata
manyanpi
mikhap
1492
taripasqam
pillunkuy
yuskadi
taripakuqkunap
casosmanta
junior
##qtaqtaqtaqtaqtaqtaqtaqta
aguilar
historia
wijsan
kismapi
mayqenniykichispas
palabrasta
jasut
qinghai
yarinaqucha
bukya
solola
yosemite
warkhuna
provence
babahoyo
tiqsimuyuntinpi
cronicas
siwla
rouen
faustino
filosofia
yuyarikunaykichejpaj
diagnostico
moqo
kamayuchiq
suegran
iskanwaya
arminya
ruwapuwasqanrayku
anchaykachaqkunatan
chawkatu
kallpanakuy
entonces
medalla
nordrhein
qilqasqakunapiqa
secundaria
alessandro
finalization
ubinas
winston
yerushalay
siwinaqucha
nahuatl
yumanayuqmi
arsenal
tipuani
babilun
empire
##екс
ascension
tacna
katiguriyannaq
munduntin
marksismu
alpikuna
massachusetts
english
khuskan
constitucional
phoenix
reunioncho
calendario
sikundu
ugarte
madeira
sanskrit
kutsra
hueypoxtla
almeida
sindikatu
expediente
nikomidyamanta
respiratorias
aristotelis
ageop
ulliru
sahtu
kumarapa
divergent
litoral
willaa±iqi
humanidad
caqueta
iklisiya
atletico
nutisya
baptiste
puskanturpa
brooklyn
groningen
aeropuerto
nikudimu
brussel
cliath
empalme
febreru
tyimpu
tenerife
kachisapa
mahuad
madison
codigo
escena
moquegua
brabant
vaupes
chakaltaya
velazquez
lincoln
5chay
6n
7chay
a±
achasqa
aro
amin
amun
akunawan
ava
ataqmi
acu
akunku
adri
aji
azi
aruma
arupi
aiqui
boni
cl
cra
curi
cres
cera
danu
despa
ee
ela
eis
eins
fis
flumin
gna
gia
gfdl
hes
huri
huya
hood
ikunayuq
iuli
iqtan
ipampa
impi
itana
ituwa
illam
imanu
itanta
imbab
jurin
jez
jusi
juran
kra
kwar
kukay
lusa
lllank
mys
ns
ner
nusta
oy
oe
oma
oca
octa
otto
ojos
osaka
prus
pena
prun
pisto
qoq
rinan
ruqutu
sl
susa
sciencia
schio
tla
tana
tunan
tosa
tony
tristan
uchi
upay
ump
ullp
uwis
uchata
vill
vec
villan
woo
zsa
ɵyaq
ευ
ал
ан
##oh
##ograd
##ata
##aceae
##spas
##uin
##uti
##uku
##iqa
##itis
##duy
##dras
##drun
##dele
##ddy
##mya
##musa
##morqa
##eche
##embre
##rnin
##rqon
##gis
##gura
##guni
##curi
##cisa
##cero
##cted
##hra
##husuyu
##ktam
##kmb
##kja
##khe
##kikun
##tki
##tse
##trum
##tche
##tney
##qusqa
##qhun
##qospa
##villos
##jia
##2k
##22
##аил
##zio
##zzaro
##44
##fla
##fos
##fini
##fue
##bos
##byi
##6n
##ατ
##αγ
##υκ
##xy
##اد
##еевич
##τσ
##οφ
##φαι
##ankunata
##angar
##anllapapaq
##qasa
##qash
##unu
##unt
##tali
##chill
##inpa
##pital
##papa
##pataq
##patitis
##isyu
##ispan
##istakuna
##isisyun
##kunaj
##kunakta
##uyos
##millay
kai
kakuq
kausaq
karahu
kampan
##marinayuq
llaqu
llalliq
llatapi
##tich
##ties
##tier
##tiza
##tituy
##tivos
##chak
##chapa
##chakunayuq
##chada
##chataqa
##chakra
chuy
chen
cheno
##kup
##kupu
##kuchka
##kures
##kumanchu
##kushka
##kushqa
##llao
##llasqan
##llapaqmi
##llacta
##rikunku
##rikurqanku
##rizo
##uqtiy
##isqaku
llaqtayki
llaqtamantam
wampi
wakiq
waps
walay
wachaspa
##ukin
##ukis
##ikunanpaq
##rawra
##wasqanta
##usiya
##ruc
max
machun
mace
maqasqa
##kamanta
##kawan
##kapunku
pac
paci
patampu
pavon
pathos
pachanas
anco
andor
annu
anchanku
anchanta
anhui
anciano
siy
siul
simun
sipin
nisqakunataq
##anataq
##anare
##kiri
##kiyan
kaylla
kaykan
kaymin
runataqmi
runamas
runacham
hach
hala
habe
hamuran
##mantaj
##mantachus
##sqas
simipa
simichu
simikunapas
##ninkuq
##inaqa
##onpi
##onne
##hasa
##haza
suyupaq
suyupin
suyupura
##illio
yati
yapaq
yaqha
##tuwan
##tual
##turqa
##turales
sud
sum
sullka
surat
##iykuna
##iyanmi
chayjina
inɵ
inun
inri
intu
inkunata
inse
inqaku
inukun
innaq
inves
inkanan
##puya
##rqantsu
kipu
kiel
kirani
kigali
riran
rica
riga
rivas
##ult
quchay
quran
quchayuq
qumanchi
##kuniku
##insk
kasta
kasuk
sai
sac
sataq
samar
saqaqa
samoa
llaqtapitaq
llamkanku
pip
pitay
pichinku
##sim
##sir
##sipas
##uruna
anqapaq
anqakunatam
ayo
ayri
aykunapi
aykunaqa
aypasqa
ayninmanta
aysay
pruwinsyankuna
pruwinsyawan
##chaymantaqa
##ese
##enci
##ental
qillqaman
qillqapas
qillqakamayuq
##taqchu
##llapipis
kanqanta
##qua
##quriya
asp
asha
asco
aspim
sutikun
##urapa
umas
umala
umallin
umalliy
watapiraq
wanchaku
wanipa
##asunki
##chishan
##chisunman
taraq
tataj
unqan
##kuyninpi
nap
napis
napo
##mona
compa
computa
qatana
qaruma
qalana
##chikusqa
##chiwana
##child
maymi
mayna
maypina
maymantapas
maynej
##sapas
allisqa
allpayuq
allthe
dedo
pachapa
rikay
rikran
isin
istusqa
##chikunanpaq
wiks
wikunka
wikiquote
hinallana
chau
chawar
205
multimid
suyupim
qhichwan
hatunchakuq
hatuntaki
piruwmanta
kaqllata
kaqniyoq
ruana
rutu
rumin
rumanu
ruasqan
##cian
##cium
saniya
santus
santya
pays
paypis
payniqta
runakunapiwan
##paykum
##llum
##lluta
imaman
imakunapas
imamanmi
imakunachus
##toma
aqwiy
##puha
##puway
##rantaq
##randt
kamakuy
kamachej
inkimuq
##panmanta
qhapaqkunatataq
manchasqa
manzan
manila
##eluo
wiray
wilan
wikus
wichaymanta
yachaqan
yachasun
yachakurqan
yachaspaqa
yacharqankuchu
yachakuk
wikiruray
##sqanam
urpa
urpin
uruya
nij
nilu
##nah
##alem
kumi
kuchi
kutana
kutina
kumis
kumura
tukanu
quchamanmi
##reda
laura
lamara
laguita
laguni
lachiwana
dio
qhichwamanta
limi
likuma
yachayman
yachaytaq
yachayna
yachayninmanta
yachayninchik
yachayniyoj
yachaywasin
mune
munayta
lluna
allinmanta
allinchanapaq
##rqasunkichis
mayuatu
amapa
rimaykunapas
rimaykunatam
rimaypipas
rimayninchis
rimaykunapiqa
tukuynejpi
miqa
michiqkuna
michoacan
tuba
tukus
tupusqa
tulata
tubin
tumarapi
marin
markana
marcus
chipa
chirun
chichen
chilinu
##diyaspa
##usapam
uyaya
uykuni
yurata
##chiypi
##chiypaq
##chiyninmi
raqta
raba
ramis
raffa
##cahua
##cacocha
##teco
##tecas
##chanman
##kamas
##kamachi
jamu
jaqhi
rurak
rurarqa
waychaw
##kinan
##kinin
ayllukunawan
apura
hayninta
haykunqa
hayunmi
chuntaq
chunkay
##dit
chancay
##como
##kunampaq
##luteca
willakusqa
rimarisqa
rimaspan
rimarispa
rimakuykunamanta
wanusqakunamanta
wanusqasta
##chinkichis
yuku
humay
huaro
##ayarqanku
iskaymanta
munisipyuqa
kawsaykunapa
kawsayninchis
kawsayninman
##raykulla
kunanpas
kunanraq
kunanmantaqa
rikurqanichu
warisa
warmista
##kichishchu
sunaya
suniqi
pusamurqanku
anchari
##chkas
musyan
rela
revo
##suyupi
punchu
punchay
pununan
punkisqa
kutimun
kutimuy
kutimpu
kutimurqan
kutimpurqan
kawsarqanku
kawsakuyman
qallapa
camar
capsi
cabra
anachina
wasikunapas
wasipipas
wasimasin
wasichasqankuna
##kunamantataq
art
arisqan
aristi
##muti
chinchanpi
##chunkuchu
kitiqa
kitipipas
jueluo
pue
pulla
purum
##minti
##minos
unchawmantam
##gues
##guer
##guillio
##mbrin
##mbaq
##qaykichis
phatawanchu
alay
alqucha
algon
albarra
awana
awchi
tarukani
itip
iksu
uyarinku
qankunatapas
qankunataqa
##tawantaj
mikun
raymiqa
raymichakun
qillqasqay
munakuspa
munarqanchu
munashanku
ninwan
ninqaku
antamanta
puquyta
puquyniyuq
puquyninta
amitun
amigos
mismi
mishu
miskita
ruwashan
estan
esrap
##vir
tikunata
tipun
uktiyuq
yupaywan
yupayniyki
yupaychayta
yupaylliy
warmiman
intiwa
qusanta
noqay
novg
noinc
yanakuna
yanaqaqa
yanacocha
yanapaspa
##kunanchu
saylla
sayana
sayas
##chisqayki
##chaqkuna
kushillu
sintimi
sintuq
wini
kanqapuni
##dec
mikhunanta
mikhusha
takikunap
jesustan
vih
viejo
virales
vichada
12n
1200
yuyanku
arica
ariquma
queen
##let
chakis
wakkuna
ath
kunf
##yano
1100
markara
chuqisaka
uqpi
uqyaq
uqsina
wanuchiwa
bogart
hukchasqakunata
allpawan
wawap
wawaq
wawacha
wawakunaq
yakumuksi
unchaykunata
##gawa
##gail
riqyun
muj
mumba
muerto
mullin
qillqaqpa
nisaq
nispanmi
qhuna
antiman
nawpallaqta
nawparikusqa
##basqa
##bambas
saqsa
saqispa
saqep
suthusuyu
##ping
taripa
taripaspa
taripanapaq
tarikullantaq
suyunaka
proc
qhawaykuspa
qhawaykacha
chakrarahu
138
134
lliwpa
inkar
inkachaka
##veza
llanq
batan
bawt
big
dyis
anchaykichik
##ceum
chupi
chuco
##seco
orden
purirqa
puririn
purikunan
##mericano
##zabal
##thy
uywakunatam
akwa
akrayuq
ururu
uruwan
ururillu
##wikipedia
##kusma
##kuswan
##kusaspa
##kuspaykichisqa
utispa
utkhu
urinpi
llaqtakunas
sapallay
tukumi
tukuraka
tukukapun
tukusita
usqullu
usbik
winaykawsay
rimaqpas
rimaqninkuna
##jata
##jallp
neu
nelly
##tery
chawchuri
qhuchapampa
mashikuna
layakunatam
##morqanku
##mountains
lumu
nankunata
nankay
##muyla
##muyki
##muykichis
##isario
jinapuni
kuyuypi
kallma
qichu
qhawarirqan
llapataqmi
lea
rimanakuymi
uraka
wakinmi
wakinkunataq
225
yuyaysapa
yuyayninkuta
yuyaykusqankuta
llapanchik
##buco
sep
seman
fatima
waqt
siqsiy
munankichu
##ralda
215
pikunan
ene
unita
unichinapaq
carter
nawrakuna
##niykitaqa
##niykichej
guiz
gubyi
qillqayninmi
josef
pachakcha
condo
conguillio
patachaywan
patakamaya
creta
create
##qtinchis
##qtinkutaq
chaskinchik
rumiyuq
tarpuyta
##nee
pasu
paskay
paste
pasurapa
pampachan
##rasta
phno
phiyi
phishqa
uyanpi
sendero
chinchayqucha
runasimichu
285
280
juanwan
love
lollo
loyo
rimanayninkuna
##kusqam
kurdi
peruvian
sondor
abf
abdiyaspa
qatiqnin
cuar
cump
cuento
qowanchis
qowaychu
##sula
jeber
kamachiyki
kamachiyninrayku
chawpika
264
siminchikpi
kantunpa
kantunkuna
pukata
chayraykutaqmi
qallariyninmanta
riqsiyta
winasqan
delphin
achaqa
tininapaq
##llanas
saqillaypa
gowikipedia
nisqanku
299
ruwayninkuna
allikunata
allitsu
aranwaykuna
kamachita
kamachikunata
amis
amen
amospa
wankar
wankapi
uchuyuq
wamanmarka
chaytataq
corta
paqarimurqan
ming
minka
minchha
pozo
##musun
##muspan
papaqa
papaman
papakunata
casti
casanare
yawarpi
yawarniyuq
##porqanku
##podium
saltillo
unquykunamanta
pinta
pineda
churanapaq
barry
wasikunayuq
tanqaykun
##bita
sop
socra
sodoma
willaykunaqa
punkupi
punkukuna
toulo
tolima
toluca
atakami
atavillos
##onam
francia
bueno
bukures
qallarisqam
kachapurqan
kachamurqa
parata
paratya
waqaychu
manchakuychischu
muyuta
chayachisqa
chayamuptin
yaykuq
yaykurqan
yaykusqa
gabina
jane
##llatataqmi
kayninman
tarinanpaq
tarinankupaq
##tty
##ttgart
##kuyninmanta
nawira
nawidad
yachanaypaq
yachankichischu
kanam
iychis
betsa
beograd
qosan
qosunki
hilde
##niyoqmi
iniymi
##tsiy
##chev
riqsisqachu
qanchiskaq
noqapaq
##turapi
##turahu
canis
canete
canseco
domen
wasinpas
wasinkunata
wasinchikman
ruwanan
ruwanqa
quyllurkunata
indio
figuero
illayuq
illayta
illaykikunata
##kunapaqtaq
kanila
teh
tech
kurkupaq
imaraykutaj
chhill
chhuqu
##vora
sonqota
sonqoykiwan
chiqaqta
chiqamanta
paykunaj
huchacha
huchallik
unuqa
hoi
holly
howard
##waqninchis
tawaniqin
willaniqin
grigukunap
wakipi
mananas
allapayuq
kananmanta
cigar
wanuyninkama
nuqapa
mikhunaqa
##donia
qamman
achkiq
unchawpitaq
chaywantaq
##payarqanku
pusanapaq
pusarqa
##dence
##denburg
##saqmi
##saqku
challwakunata
wirata
inampa
##tadt
##anapaqqa
llikakuna
chinkachisaq
chinkarichin
qhiparin
kamachikuyta
uchuraqay
uchumuyla
nacionpi
vacuna
reykja
##now
wawanpas
kallpanchanapaq
sayasqa
sayapullu
##sisuyu
hulyu
hulyupi
perla
person
pirqakachun
maqanakuypaq
##tory
##ukuyta
librun
##ologo
kusaq
##ykuqa
runayu
makiyki
angelesqa
##ykichischu
pakapi
kinuwa
kachkarqan
kachkaptinmi
ruwasqaykichista
landeo
villamil
riqsirqa
##huara
llakikuspa
llakipina
kamachinqa
isaiasqa
luriway
muray
iqkuna
iqsi
purinmi
yachachisqankunapiwan
##zog
##zola
siwikunap
qarap
qarapuku
##ukaywan
384
380
kunas
kunaq
kunapipas
##asqanmanta
llaqtamanpas
tawantinsuyumanta
qurimanta
quiche
##cosur
455
inirqan
chiriqui
sunaytam
sunaypura
patapitaj
yang
yantza
yanesha
##unkiku
##unkichik
umirta
sasalla
##chashan
parlasqan
parlamintu
graham
##juanqa
chuqipampa
chuqitanka
402
mamankuq
takisqan
taytanchik
kuskalla
iruta
##book
anchatapunin
nobelpa
miraykuq
jayni
iqtakuta
hamunki
qawarisqan
##cante
imayayninta
akawara
jilin
pulska
##vante
campeche
sapankan
sapankaq
awqakunaqa
phinarikuspa
kawari
##kusunchikpas
sirwiq
banda
teresina
matukana
508
cerveza
cristomanta
##jito
profetiz
##llini
chukchu
chukchanta
churimpa
churiykichis
hinatapunin
nawinchanapaq
##ninmanjina
lluqsimuspataq
atuqchaqa
gila
giron
gigan
munakuyninta
nunat
nunakunapa
trail
warmintaq
wanushqa
farfan
rurananpaq
waqyakurqan
##folium
pilikulan
420
##dale
##karta
fuer
fuente
patanta
qech
qellqan
runankuna
##runakuna
watankuna
watanmanta
wakllanwatakuna
qespisqa
qespisqalla
precurs
venus
mirachispa
puchukayninmi
siklla
wapsita
wapsiwan
sanampakunawan
pilikulakuna
##kunallapaq
lince
linne
lingua
pinchikillawan
layqaqa
paulus
sipiq
jerusalem
maskana
yarqaypi
rikhurirqa
sunquykita
yanapaykunata
010
paqarinqa
nuqaykuqa
usaqya
germain
gerhard
walker
1812
chiqapta
adis
admira
larga
rikcharimuy
tullum
chayllaraq
wayllabamba
calzada
phuyukunamanta
napaykusqanta
sunqunta
sunqunmanta
achkiypa
augusta
israelmanta
guadala
iqtayninku
julius
muyska
wayllukuqmi
calientes
verde
putum
inkisqan
inkisisyun
yachachisqasnin
qhawariynin
masintin
puytu
puyusqa
mariyaqa
suqniyuq
qarwaqayan
qolqemanta
##llamantataq
hamaut
undele
chimpachikuq
##kushaqtinmi
mallkikuna
mallkikunaq
mercosur
akunambaq
aleman
penh
tarawasi
juchachasqa
chiqniq
yachakuqkuna
khiru
wawaykita
magne
achupa
achuma
##gono
chhaq
chhala
qaparin
munaqkuna
540
ayllukaywan
wawqiy
qhipanta
kusikuymanta
kusikuychis
kusikuyniyoj
contrato
philip
cruzpi
ulta
silv
604
librota
lloqsimun
cecilia
yapakani
palamam
palamakunatam
hununakuypa
canal
canaan
##uskara
wanunchu
##penses
apusqankuna
tikaqa
tikakunata
azur
azangar
tuywis
ulluyuq
1798
1796
##tiykichisqa
640
kukata
choluteca
qhawanapaq
1536
fois
wallpariq
belalca
entiendes
nawpanpi
familian
familianta
familianwan
apaqkuna
hilli
kicharisqa
aynita
churaykuspa
tusuymi
##rqoq
##rqospa
tapuykunata
nicola
milag
1782
1780
qirupampa
puchukasqa
raphinkuna
580
animalkunata
masicha
pushaq
helmut
yarqhay
tuqlla
saphichasqachu
ahmed
tarisqakunatam
yanapanqa
sutʼi
chaqnasqa
qelqaqa
qelqanku
##kuwasqayki
antologia
apostolkunaman
3000
saminchay
##chaymantami
rakinakurqan
maskhaspa
disneypa
##optera
tatanchispaq
##chkaptinku
impor
sisayuq
purutu
ininim
satanaspa
##diosmi
yosif
qallarinapaq
hurqunanpaq
ipachina
##brigida
llaqwa
##kuptinchik
wateqay
wateqayta
maqari
masiykiq
bruce
sananchasqan
sananchakuna
wirrina
rikuchiwanchik
armakuna
tarukam
chakanam
huchallikuq
religiones
810
kampiu
ladoypi
tupukuna
atipaqkunaqa
espanolkuna
vinotapas
kalina
kalsyu
pallakapurqanku
kutinchiq
henan
huchankunamanta
milagrota
milagrokunata
951
usqhayllata
qipapi
cordova
ujupaq
bosco
kachaykuna
chayanankupaq
huchhakama
reservada
ayqen
ukhuri
runamasinchis
takinapaq
rikatsikun
kawsasqanpi
jatuchiq
reqsinan
974
kenya
kenne
maputu
mapuchi
suticharqanku
urqukisa
rawrachkaq
##calientes
licenciata
mexih
##wasunman
pirwata
huchayoq
1756
yakuchaqkuna
ususiyki
gubirna
byron
asnacha
hayaqi
sinurpa
flag
vanco
quindio
galeano
ganadi
irawpi
uranu
umukuq
katiquriya
wallqayuq
aqanakunankuta
pietro
ciudades
qayakusqa
1471
##shaqtintaq
khankiqmi
darwin
yupana°
yupanamanta
venezuela
ripunan
catarina
suyunchikpim
yuyariwan
muksichaqwan
yurima
columbus
akllanchay
napaykuykim
elect
kapua
suphun
kanankukama
kanankupaj
kuchusqa
hudyukunap
usukuchi
patsacho
##ικος
soqtayoq
machupikchu
post
pirqanchik
reparaspa
kunrisu
juramentota
##enium
publica
franklin
wisnup
testigos
bolzano
xviii
kachkayninmi
cotacachi
cotabambas
##cologia
salomonpa
agave
imapichus
mandakoq
milton
montpe
group
selva
##madura
rogakurqanku
phistakunku
takyachisqa
cheqnisqaku
usiqa
chayaspaqa
ingenio
qarqosqa
minutuyuq
liyiyta
padcaya
shipibu
iluman
harakmb
mirananpaq
munaynillanku
qhipamanri
shuyturahu
komunismoqa
kriyiqkunaqa
stuttgart
zheng
zheji
##ideae
runaspata
austin
television
charapa
huntap
linguo
sutʼincharqa
hospital
jurgen
qispin
##kukpa
##llarqankutaj
##ukanas
llunpaq
kikillantataj
saqmanakuy
justiciata
odria
##rqorqanku
hamk
salitre
phuruyuq
filipenses
frederick
alvaradop
eib
gilberto
ililaya
hawke
samboron
tambomachay
ismuykuy
llaqtancheqrayku
nieves
tintaya
chaqruq
yayaypa
desague
andamarca
colimes
ruburiy
correo
cienfue
ministruninmi
naranjito
biatu
delete
chaskinapaq
vizcardo
claude
agraria
disimri
huraw
swasisuyu
scotia
mayuniq
liberia
liberato
abigail
qunqaychu
trabaja
pillunyayuqmi
bautizasqan
##kikin
nacesqan
istuykurqan
mikhusqanrayku
seguro
biblian
aguila
efectos
allanaka
tucupita
aguascalientes
from
gringu
lyco
hamushaqta
##harto
yachaysunturpa
nuwimri
nuwimripi
yayaykichisqa
valorniyuq
saphiyuq
pirami
defenso
dasy
grasya
chulukanas
qurpacha
casimiro
awustu
violencia
brasilia
cuatro
tinkipaya
variantes
gerais
llaktakunapak
tecnologia
playas
risaralda
wendling
churiyarqan
hatuncharqanku
pukyunqa
tardeykuq
estrada
kamachiptinkama
ukupasyun
jimmy
azucar
original
xxiii
afiche
nestor
##imaynan
##dlands
katharine
urbano
tullparahu
catalina
aixin
aceitewan
acosta
fundacion
hector
##chillanmi
chiquin
sardina
nawatl
maypachachus
wirayachisqa
##cariote
##text
reaccion
yanachaga
wakinchaypaq
chikichasqanmi
leopardus
gelderland
iliada
runkuraqay
runakamaq
habakukpa
rahab
juicio
rankings
universal
logrono
galatas
palawran
shanghai
tistamintunpi
divorcia
auqana
kristuwal
chukuytu
qumutu
delaware
declaracion
chiapas
catolica
nowc
qhurqhi
inkapirqa
baquerizo
llapantiykichikpas
barbuda
andalusiya
karnawal
phiwrirupi
##ongjiang
tradisyunal
urqukunaniq
translatewiki
tesalonicenses
pimampiru
saddam
saskatche
quetzaltenango
orleans
nanometro
seymour
carnaval
berkeley
heilongjiang
penarol
prutistanti
casadoq
derechoyoqllan
aiquile
fluminense
ituwata
imbabura
lusaka
prunus
scienciaq
tosagua
patampuku
pathoschild
habemus
investig
aypasqakunapaq
wanipaku
allthemountains
santyagu
manzanero
wikiruraykamay
kumishin
kumurakuna
laguitao
lagunillas
tubagu
tubingen
suniqira
capsicum
algonkin
novgorod
noinclude
mumbai
mullintu
saqepuspa
tukusitaw
guizhou
gubyir
phnom
lollobrigida
loyola
toulouse
bukuresti
betsaida
hollywood
reykjavik
yantzaza
guadalajara
azangaro
belalcazar
samborondon
cienfuegos
saskatchewan
4n
allapi
ago
akunaman
ayuqmi
akiq
akuyta
aqtaq
ahay
akuchun
adam
akushan
bc
bul
bres
crio
cei
cly
diy
ea
ek
ef
eqha
evar
equi
echino
fr
folk
gy
gina
goo
gang
goro
gold
greno
hik
ikunata
irqanku
ipana
ipin
isiya
iqui
iuc
itaqu
idiy
jp
jen
jino
jones
jalis
kʼ
kuq
kyo
line
lyn
lille
myan
ny
nø
nku
ngo
nern
nillankutaq
ow
o2
oran
olan
oea
ochoa
oruro
opuntia
pse
plati
pillu
plaw
qish
qiqin
rh
ral
rena
rename
rbd
suna
sci
slas
spiri
sko
stro
sten
sze
special
schal
sruc
snow
tura
tej
turin
tuni
tlax
teja
uyuq
ukunam
ule
urirqan
vez
yta
yus
yine
yuran
°c
ɵyan
βα
ζω
θε
иван
ми
ст
##ow
##our
##lka
##acha
##aka
##abra
##smanta
##sill
##stri
##uman
##uqta
##uer
##uve
##uille
##ypas
##day
##dana
##dho
##mena
##eter
##eque
##eae
##ehue
##ruyuqmi
##gli
##gda
##ganku
##cw
##cuy
##ctica
##ctivo
##hen
##kera
##pqa
##pusa
##pper
##pje
##ptera
##trus
##qpa
##qhe
##qing
##visi
##js
##jay
##jman
##jano
##89
##86
##24
##25
##ат
##zra
##zer
##zsa
##zette
##ين
##35
##37
##ور
##ис
##buk
##bia
##bani
##μος
##1n
##18
##16
##100
##υμ
##хаил
##ال
##ед
##σις
##ρυ
##ργ
##ρον
##гор
##θη
##θε
##ər
##γελ
##øy
##anca
##anjo
##antyu
##unchu
##tada
##tataqmi
##chwanchu
##aymanta
##aykunata
##intin
##inos
##pic
##pito
##pitam
##paqta
##pamanta
##paqay
##pakuspa
##paxi
##iskay
##ishun
##istico
##uykuna
##mian
##mirqan
##mikh
kam
kachan
kakawa
katuk
##matica
llata
llakin
llakichis
##tiru
##tiana
##tium
##challay
##chaea
##chashqa
chka
chuka
##kuh
##kush
##kukurqan
##yachinapaq
##llapana
##rie
##rij
##riana
##riwan
##richunku
##right
##manka
##manchik
##manga
llaqtatapas
waqi
waqana
waxa
wachanku
##iklita
##rah
##rapa
##rash
##waqta
##ruwa
masqa
mali
makana
mamantaq
maqayta
makara
##kal
##kasha
##kamurqanku
pall
pato
pakan
paco
pase
paras
pakunas
paccha
patsan
antin
antawan
ande
ancon
anemi
ansal
anmanpis
anduwa
sid
sila
sili
siwya
simb
sime
sibe
siete
simbab
nisqalla
nisqakunap
nisqakunapas
nisqasuy
##anata
##anakuspa
##kir
##kimo
##paqu
kayllapi
kaykunam
kaykunamanta
kaykunaman
runari
runahina
haro
hawayi
##mantapachan
huklaw
simikunap
##ninkunapaq
##wanman
##wankichis
##inawa
##onto
##onal
##iquta
##haru
suyuchaw
##illiki
yaru
suen
suli
suda
sukuwa
suharto
chaykunawan
chayllam
chaypachan
mamallay
inc
inchan
indyu
incharqan
##rqanllapa
kiwi
kida
ripan
ripusqa
ripurqa
watakunapiqa
wataspi
ques
quia
quere
quriq
##kunaykichispaq
##inson
##chuqa
kashqa
kasukunan
saki
saran
sakha
sawanqa
sahama
llaqtapiwan
pipa
piray
pico
pitaj
pirana
pianu
pird
pipapas
##sibi
##urq
##uray
##uruqutu
aypas
aychis
aypay
aykuq
aychaq
aykuspaqa
niqwin
##eses
##esba
##enon
##encas
##enqanku
qillqayuq
qillqakunam
manaq
manakunku
manakuqtin
manakuran
niqinmi
##llapiraq
##aryu
##arispa
kantu
kanto
kanpuni
kankuchu
kanuwa
##qukuna
##quchan
##quillo
coa
coma
coel
colan
coden
comaya
cook
copia
corea
##ayuqchu
##hibo
asn
aswa
astu
astan
asllawan
assam
##lito
sutichay
sutichan
sutichanku
sutiyqa
##istanku
umati
qhawar
##tanya
##tanman
wandalu
##ashun
##ashpa
##chiswan
tat
tapa
tampi
tabas
tapuq
tapara
tamil
uniya
unca
##kuytam
##kuykichis
##kuytawan
naraq
natal
nairo
compu
qatu
qallay
qallpa
qawayku
##chikunapaq
maytu
maylli
mayuki
maymantataq
mayniq
mayneq
##chasqas
apuymi
apuyki
##sata
##sach
allwi
detro
pachatawan
pachapura
pachakunas
iso
isura
istad
isqus
iscariote
##tiguriya
##iyap
wikine
hinatapas
hinallapas
hinarimana
hinamantapis
hinallatataq
ichas
##dyah
kawina
kawitu
chaj
chaman
chaha
chate
chakupi
chaqullu
charik
208
206
mulduwa
##ory
qhichipa
kaqsi
kaqniyki
kaqwata
kaqtiy
kaqninchis
rum
rume
rutpa
sanku
sancti
payri
paytam
paypiqa
payninta
payllamanta
runakunachu
imachu
imakunam
##wayllu
##waykuchu
##towan
aqchu
aqkama
aqllapas
##pua
##puwayku
karqanam
##niypa
##niykunata
##niyjun
##spaj
kamachinku
llaqtanchispi
##panpi
qhapaqmarka
##kaykichis
##kayninta
##elzebu
wichi
witis
wiesba
yacharqanku
yachasha
yachakuyta
yachakurqa
yachachiku
##huru
urmana
urgan
urbanu
paqarisqap
paqarisqakuna
nig
niqa
nima
nice
nikurqan
niptiy
##navaca
kuɵ
kulla
kumanta
kuela
kuwintu
kullki
tukunqa
quchata
quchapiqa
quchamarka
##remo
lao
lam
lat
lamud
pukllasqa
pukyunmi
pukaran
didi
digi
dicie
diwanaq
qhichwap
lipe
liao
yachayninmi
munqhi
allintapas
##rqataq
##llanwan
##llantapas
##llanqaku
##llantapuni
amaran
amallataq
rimaysi
rimaykunawan
rimayninpi
##kanchik
##willaway
tukuykuna
mirayku
kawsayuq
kawsashan
tupana
tukunapaq
tukuqtintaq
marqu
marsha
marphi
chirin
chiang
##usah
uyta
uyuy
uymanta
uyusqa
uywanku
yurakunawan
yurakunapipas
##manata
radi
rachina
raton
raza
rawk
rabi
radyu
ravelo
ramire
##calla
##cacion
##cache
##mpya
##chananku
##kamachiy
jawi
jamus
parlas
waytam
wayqi
aylluta
haykuna
haywarqan
chunqaq
chuntukuna
##diz
bulibya
willash
willawanchik
diosnillay
rimak
wanusqap
hukllachashqa
##chinmanchu
##chinilla
huana
huerta
##punkuna
##punkichis
##ayarqan
tiklla
kawsaytapas
kawsaykunapas
kawsayninpi
kawsayninmi
kawsayninku
kawsayninqa
kawsayniykita
kunanpaj
rikuchiyta
rikukunqa
rikuchinqa
hunur
warkusqa
##pea
##peka
sunku
sunaymi
urqukunawan
urqupina
anchachun
anchatas
##chkaspan
##chkaptinmi
##chkaspaqa
musy
musqh
rever
puntar
pununay
kutillata
qallariq
qallarerqa
camer
cambia
cacata
anamarka
anallantapuni
##lans
##lanu
wasichan
##kunamantas
arpa
artiku
arkiy
arkhi
archaea
##mullantaq
chindul
kitita
juven
putaqa
pucara
pudir
##minka
##minoso
unchawta
unchawkunaqa
unchawpis
##guci
##guenga
phawanapaq
alerta
alnus
awrawa
tarpu
tarpuna
itiqa
itier
uyare
##rishan
##rishun
qanwanmi
##rinaypaq
willanku
lliu
llimpi
llipipi
munasha
munakurqanku
munarqani
munarqankuchu
munakuwa
munaqtaqa
ninkichu
antakunata
atilla
atichispa
atipayta
##qitu
##munman
pez
pete
peba
pederna
##ikamay
##ikapurqa
ruwaj
chunkara
esco
especi
esqui
eskimo
##vicen
tirisa
##pampapi
1500
15chaymi
yupayman
chaska
warmipa
warmiyuq
warmiyki
warmikunaq
qusanwan
mamallaqtakuna
mamallaqtamanta
noemi
notho
nisqapipas
yanapi
yanaqi
##chisqaqa
##ptinpis
kustu
sinchiy
sincel
##tapash
##aykiwan
##aykipas
##aykichej
##shana
kikinchu
qullaman
winu
winku
wintana
winter
##goa
##goku
##mpita
ayasqa
ayawi
qusqup
qusqupiqa
109
takikunam
jesustaj
##sunu
##sunchu
##sunmanchu
##sunkichischu
12chay
yuyaq
arirqan
arikunanpaq
umalliqninta
##muqqa
wakkunata
atuqsi
kuntra
kunkayuq
kunming
rocha
rotter
rosita
114
11chay
markakunapi
karuchu
wanuchis
wanuchinku
wanuchirqa
bocas
book
boquer
##loa
##lov
##lova
##loven
allpakunamanta
wawakunataq
wawasta
yakutam
unchaykunaqa
##sinmi
riqch
riqyunpi
muti
qillqaqkunaqa
nisunkichis
kuyuna
ranun
tiyapuy
tiyarka
##bati
##ciacion
numer
protes
proei
protista
qhawayta
##chanataq
##riaceae
italiya
inkaraqay
kawsaqpa
kawsaqkunaqa
bak
baha
bajo
balao
badlands
kasqankuman
kasqankumanta
anchaychu
anchayniyoq
##cera
##cetes
chuj
chuqay
##sell
oresti
purirqanku
##meo
##melia
uywapas
uywakunaq
nirqani
akhili
urum
urukuna
urubamba
uruchaki
##dum
##duz
pawqa
##kuspay
##hota
tukuchiy
tukurqanku
tukuchisqa
usti
usiq
usnu
ususi
winayninmanta
##jaqi
neo
ned
neqpi
killapas
killawaya
##terra
##terus
masta
mashi
maskan
masillay
mastari
layam
kapusqa
kaptiy
##moria
lupaka
lujan
luminoso
qatichina
josua
nani
nanman
nantes
nanaypaq
##muyuq
llumpan
kallpayki
qichuna
shapra
qhawashaspa
llapallaykichis
chaniyuqmi
letter
wakinchasqa
222
yuyaykuna
yuyaykunata
yuyayninpi
yuyaykusqan
yuyaychakun
llapantin
sem
see
sequ
seba
munanin
munanpaj
munanqanku
tiyaypi
tiyaykuspa
##resa
kuyuchinapaq
##uyaku
216
aramb
arauc
carne
carbo
carrillo
qispim
guep
gueva
##kiywan
sunturninpi
runakunappas
atinta
atinchis
atinanpaj
atiykunawan
atiykuman
247
236
contral
inkisqakuna
creej
##cular
##qtinchus
moa
moors
rumiqa
rumiman
pasashan
pasinsya
pampachayta
308
304
kashaspan
kashaspanmi
phistanku
uyantaq
sender
senecio
ukhupipas
rimananchik
##kusqaykita
ninat
kurpu
khana
apache
apamurqanku
##kusqanpi
##kusqankurayku
abdu
qatiqpim
qoqa
qoya
qollanan
qollasuyu
##sua
##sup
##llapam
273
275
270
imaynaraqmi
kamachiykunata
kamachiyninkuna
chawpiman
265
siminkunaqa
siminwanmi
purej
purani
pukalla
pukaqapa
hinaspapis
qallariymantapacha
rurasqayki
riqsispa
riqsikun
pano
panin
panwa
pantaq
panda
pansal
winarqa
winarin
winarispa
achacha
achakunayuq
achachillanmi
awqaqkunata
##aykuwan
aqakuq
aqakuychis
jisp
gott
##phon
ruwaynin
ruwaytapas
mets
medio
medico
memoria
quywi
italyap
amerin
kasqaykichis
chaninchan
chanintachu
##vino
llaqtakunapitaq
paykunatataq
dyusniyki
dyuswanmi
uchuka
uchquy
paqarirqa
paqarichinqa
poz
popayan
power
poaceae
pukllaqkuna
caso
dali
dario
damian
yawarniy
yawarninwan
##pola
salmos
unquypa
unquypaq
munaykun
pisita
pisillataq
pisillata
qayay
qayarani
qayllayki
churani
hunukurqanku
barro
barrios
ujllapi
ujllachu
##bium
sou
sojta
sophia
sozor
willaykun
willaykunapi
topeka
atataq
franca
france
kacharqa
kachamus
hank
antikunapim
waqaypata
waqaysapa
chayamuq
chayamur
chayamusqa
chayamusha
yaykunku
yaykunanpaq
gamarra
gazette
kayninpaq
kayninkunayuq
yachankun
kanasqa
kanarya
beelzebu
churakuq
churakuchun
hip
hipo
rurukunapas
iniyqa
iniypa
iniykunapi
iniyniyuq
iniyninta
##cheqa
riqsisqam
provinciamanta
##erea
##bede
down
##verde
wasinchis
mariaq
ruwanaypaq
indice
file
ficus
yunchara
kanchaqi
imatataj
teq
tepic
ukukupa
chhikay
rurasqanmanta
sonqoykichista
sonqoykipi
huchaman
huchamanta
huchallikun
kusiku
kusichi
##castle
unutaqa
hoff
andespi
hamutay
##waqra
jallpʼan
uyarinapaq
panaqa
qunta
qunqasqa
niqikuna
iwrupap
yachachiqkunapiwan
umalliqninqa
kananrayku
cir
citara
cieza
wanuypa
wanuynin
nuqarayku
runaspaq
runastaj
qaqaspi
##hem
taytituy
qamkunapaq
qamkunaman
aug
##gentillo
aqumarka
aquino
kankichiq
saramuyu
rusaryu
russell
waynakuna
karta
unanchay
wischunku
ferenc
hurhi
##ikunana
jachcha
phiwi
philoso
kapuqniyuq
inapuri
puchq
##phaqsi
rakikuq
ankara
awstrun
awsanga
vaduz
reykuna
plantillakuna
kamachiqkunamantawan
wawanchik
llakik
sunquman
##guado
qullqiwasi
qullqichaka
kallpancha
kallpanwan
sayariyta
##ojta
illaykunawan
hulkan
##pinataqmi
berto
bertrand
pirqasqa
kawsanki
kawsanaykichispaq
maqanakuymi
maqanakuymanta
maqanakuypiqa
359
357
libya
indihinakunap
eclo
##tusta
antanku
portachu
portada
makita
##ninwanqa
angelta
angelninkunata
chaskiwan
chaskirqanku
hechus
hepatitis
khaka
pakachun
##chinapaqqa
ariypi
ariykunata
ruwasqayta
rincuna
villavicen
364
huwanhuy
riqsichirqa
##huaman
llakikunata
kamachinkuna
kamachinkunata
puriykuna
puriyman
puriyninta
puriyninmi
wamanipiqa
isabela
isaiyap
##gancho
##cismo
lurigancho
##aykichispaqpas
345
340
##chanapaqpas
alaq
shen
shushu
kuntimanta
hermos
336
yayamari
millman
millaymi
##tenqa
willakuykunaqa
##manuel
##pankutaq
kunata
kunallan
santowan
qelqapi
knw
tawka
tawlli
quiro
quimsa
fecha
feria
456
kulumbyap
kulumbyapipas
##anchischu
iniru
chirillaqta
pumallakta
makinkunapi
aswantataq
mosqo
morote
chakatay
tususpa
supaykunaq
parlarina
awacha
gradu
grabar
409
yachaywasimanta
taytantapas
1846
gard
kuskacha
wakchakunata
lloqsiy
lloqsiq
##ninchikpi
jaylli
kurumama
##minata
kunkakunap
hamunku
qawariy
cheqaspi
thakisqa
jila
samaspa
tantanakuykunap
##vantes
kallampa
sapanqa
awqakuna
awqarqan
phinakuy
phinakuynin
takinku
kunturwasi
kinsantin
yoro
punchawkunapi
kallpachanqa
banco
##iseu
##chikunaykipaq
qonqasqa
wakap
468
dumbo
cervantes
##suyki
llullakuy
ajinapi
cristota
tiempopin
chukis
churiqa
##chikuqkunata
sipaspa
sipasman
yunkakunapi
northa
normal
atuqpa
chiqanya
harawikuq
munakuyniyoq
munakuyniyoj
nunakunaqa
partidup
partidumanta
ketsu
faro
kawsaykuqkuna
uyarispataq
kapunqa
davidpaq
suwiri
chaynatam
kamachinakunawan
##elote
##msk
iniqkunaqa
jesucristu
fuku
chimpayta
qell
runanmi
runantinpa
aspallapuni
raphiqa
1009
ventana
vendes
boliviamanta
asipay
siksik
##kunallachu
kaqtinku
477
ichkinakuy
layankuna
sipiy
mikhunpas
mikhunaykuta
##washan
maskhaychis
achirqanku
llaqtaymi
chaymanjina
kawsarimpurqan
truman
kobe
yarqaymanta
yachachinqa
yachachinanku
rakispa
qillqani
qillqananchik
sunquykuq
011
kusisqachu
khuchinilla
paltas
palermo
praga
walqanqa
walther
floriano
1817
mikhuytapas
larun
laranqa
muquy
qutuchakuy
qutuphaqsi
tullup
chayllamanmi
calce
urayninpi
phuyumanta
phuyupata
apaykachanapaq
paqtachaq
hard
kisuq
sunqunkupi
umanman
paqtsa
huac
huaca
hampshire
riqsinchikchu
guaira
guajira
mendel
##unkichischu
versi
vergen
cuernavaca
cheqaqpuni
mukmu
hawina
yachachisqakuna
noqaykuwan
mayqenninku
mayqentachus
masinkunapaq
qallarinqa
qallarinku
qallarinqaku
balsas
qarwamayu
##llamantachu
yupachikuyta
killayuq
mercuri
allqaminka
489
llikilliki
789
##nessee
yuyarisaq
##eau
juchasapa
kuskanchik
093
clark
##watch
##zimi
1806
simone
uychichaw
runtukunatam
prueba
sinaloa
magno
magnus
awstralyapi
chhaqay
##chankum
munaqchu
kusituypa
klubnin
ayllus
wawqis
uquta
kusikuynin
kusikuywan
##kurqun
machado
regionales
##rikunankupaq
##chinchikmi
##musqanman
ruqyayta
uluka
ululu
kunankamaqa
primi
priva
libropi
lloqsirqanku
celica
raymond
pachamamawan
hununakuypi
raykum
wayllukuni
565
apusqan
casarakurqan
nurgi
##valdo
757
gonzana
688
tuytuy
tuyruyuqmi
1797
1790
soledad
##ashaq
waytasapa
freud
tiqri
tiqllu
chakuma
cosmos
tunas
bernar
hindu
llamaqa
llamakuna
accra
oly
oluse
pasaje
sacerdoten
1550
sayarin
sayarisqa
familiares
yawachi
louvre
internetpi
khuyapayaspa
qhapaqsuyunman
profetakunamanta
1788
1784
1783
1785
1786
qiwna
ispiritup
ispirituqa
agri
##kamunanpaq
##kamusaq
alltayuq
##dishu
wachapala
##thar
tupah
moisesta
576
help
helsinki
tuqi
willasqakuna
willasqaykichis
nurwigapa
ahmad
yuquspa
waqtay
imaschus
qhaliyachisqa
983
qalawala
qalapuha
chalamanta
espanola
barbaquwa
llimphikuna
montec
sayarichun
apostolnin
الم
kurkunta
kurkunmanta
churanaykama
619
##well
tatanpa
niwankun
niwankichis
tukuspataq
atiyninrayku
uyarinkichis
uyarinanpaq
uyarinankupaq
uyariqkuna
respetana
wanusqanam
stefano
unanchananpaqri
bisantyu
kaninam
chimpulla
##kuqtinkutaq
hurquna
hurqusqa
##tunas
llaqwanku
##kuptinku
chakinpi
reqsisqan
serviciokunamanta
amantapis
samiwa
qhasqo
laqhin
##riykukuspa
waqllichirqan
llakikuymanta
llakikuychu
oliveira
karunchakuy
chakanakuq
##kushankichis
huchallikuqkunata
##tterøy
ruphayka
uqyaynin
pontifi
stalin
states
##mycetes
atipaqman
1541
cuerpoykipas
897
vinota
vinotaqa
##ikou
barranquilla
885
henares
pallqarasu
sarmiento
sargentillo
huchanchis
huchankuta
lusuria
hanaqpachakunapi
georgetown
akuqtapas
michiqnillay
tumpata
kikiykichista
qhellichasqa
campopi
792
ayqirqan
rikatsi
amawtakuna
hununpa
suntukunam
ninive
chhulli
wichaykuna
wichayman
urqusapa
laqhapi
wasinpitaj
serviyta
husk
qayllaykuspa
japʼin
uyaychasqan
huchayki
huchaykichis
1750
yakuchaqwan
waqracha
qispisqakuna
qaranya
jacoboq
makka
sananchakunayuq
1579
wasanchankichu
chilik
kashaspapas
771
edith
umuyka
katiyun
##taqui
capitan
chinkanankupaq
chinkanqachu
lluqsinku
aqanakuy
##litsa
judeamanta
1524
1769
1761
churuti
churupampa
yuyaychakusqan
juntʼasqa
kawsarimpunqa
darms
stoke
sulluchiy
yachachispataq
cielopi
impuwis
zedong
zeeland
ripunanpaq
rejsi
qallarisqanmanta
uribe
##yevich
llaqtachakunapi
sarunchasqa
uqharinku
250px
eliasmi
agostopi
celtis
elephan
gorbacho
kuchuq
hudyukunata
terminokunata
illimsayaku
saphintam
clemen
sistemas
arteqa
1685
chawinillu
wasiyman
corintius
ababa
paises
2021
haykap
haykataq
saqesqa
pampachawayku
kachamusqallam
jurado
tumatsiq
xvii
yachaqaqninkunata
jarabe
parrafu
juzgas
imaykanam
mikhunanku
anqanpi
isqukuna
apamusqam
pʼunchaypi
cundur
llajtapi
llajtamanta
llinph
llinphi
wankaskar
asindadu
adanpa
euskera
trent
kapilla
chongqing
ingenie
##tantinos
imapaqnataq
maniphis
reparay
atipanakuy
chhukap
fungi
liyiy
qunibu
angolo
pitipu
apuyayapa
humberto
nishqan
horasta
##ουα
mashkha
dibujo
qosqay
zacariasman
bearnpi
pyrene
paskasqa
phusuqu
chayaqkunaqa
thaqupampa
raimondii
austra
ausanga
chhiqan
albany
##rishhanka
hydro
hostal
qispis
tennessee
yukra
##wasqayku
yaguachi
istudyah
kutiypaq
qunchamarka
##ronomo
hinanachu
clint
gansu
##rqorqan
##qtiykichis
chaymantanan
umallinamanta
tamrayku
distritunkuna
argentinapi
lliphlli
rogers
1660
thasnuna
eugene
##flora
hatuchaq
qhatamarka
wanukapurqan
wanukapuqtinqa
llaqtancheqkunaq
reither
judiosqa
betania
jeremiyap
##mientuyuq
andahuay
rubens
guillen
cientifi
pachakutik
naranjal
chillkiyuq
drogas
idiomas
champira
qaraywa
pachankap
juntʼanan
greenwich
llojsimuy
kecsua
lunawana
nikunku
oseaspa
telugu
white
anchh
mayunkunapi
##mberg
yuyaymanaspa
laqhisnin
occitan
kaypachaman
qhaqya
chimborazo
punusun
noeqa
saynapi
juniors
garantia
samarikusaspa
deuteronomium
wuhan
##ριστ
llawq
marucha
angelica
sutiyup
sutiyuqta
kamariqninsi
kukuli
kukupin
muthuy
ofrendata
aveiro
evangelio
emergencia
plutun
harkasqa
kirilitsa
kashian
qaparirqanku
yachaysuntur
chipcha
camello
1187
jisustaq
vallejo
charlottep
fisica
imepis
uhcw
rumaki
phatma
uqsitaniya
bombuskara
secretarioykuq
aparniyuq
minuywa
damaso
tayiksuyu
tayikistan
parlariwanchik
fredericton
cristal
kerkira
pisac
pacienciayoq
chaltura
paqaypampa
casimira
arroz
awustupi
llankʼay
contraykichispi
pasochoa
nejtin
yatawaki
informacion
cotopaxi
qhatqi
amazonico
espinoza
chubut
leonid
concejo
abanto
gaiba
ejercito
dipartamintukuna
cereales
equus
msnm
oceano
pereira
walakisa
rixuri
kasuychis
aqyawiri
urunquta
chhuquruqutu
heinrich
adurananllapa
ruyrus
rhode
tratamiento
κετσ
maestria
infobox
comercio
laprida
limunqucha
armenia
quechuas
profes
kharkatiy
lloqsishaqtin
kriyiranllapa
wicharipurqan
inkuminda
luychu
mecan
ocotepeque
obasanjo
pataqunya
mizque
chiwchi
qhencheq
cardenas
contae
monroe
qhipagradupaq
khallwa
napaykamuykichikmi
asqanmantatajri
ripuspataq
occidental
clodo
asociacion
iskrib
arkansas
encanta
engels
popular
akakllu
administra
edinburgh
qullqincha
brujeriakunaqa
qhasquymanta
khillaychuki
umpuyasqa
cundinamarca
achiksamaytu
registro
dolores
disipulun
hanoi
##mirante
warawara
matanzas
kaswayninta
asanaki
kumamoto
wakchayasqa
neiva
ferdinand
kingston
samarinkunankupaj
kecuan
laredo
konstantinos
yerushalayim
crespo
despacho
iulius
jurankichu
tunanmarka
uwispu
chenopodium
andorra
runamasiyki
maynejllapipis
chawarpampa
ruanasninta
yachaytaqpi
miqapaka
camargo
amitunchik
intiwatana
tukukapunqan
chawpikallki
domenico
tehran
inampari
silvestre
wirrinatu
mexihco
gubirnadur
zhejiang
investiga
santyagup
clyde
evaristo
iucn
jalisco
myanmar
nøtterøy
nernst
pseu
plawtich
skopje
schalke
tlaxcala
михаил
ansaltu
simbabwi
harold
queretaro
sawanqaya
codenpe
comayagua
tabasco
nairobi
mayukillapi
detroit
wikinews
qhichiparinku
wiesbaden
kuelap
diwanaqri
liaoning
marshall
marphil
chirinos
ramirez
puntarenas
pedernales
nothofa
sincelejo
rotterdam
boqueron
numeros
orestias
josuap
gueppi
guevara
contralmirante
pansaliyu
amerindia
sozoranga
gazetteer
beelzebupa
awstrunisyu
portachuelo
rincunada
villavicencio
aspallapunitaj
gonzanama
olusegun
lusuriaqa
gorbachov
ingenieria
maniphistu
samarikusaspataj
κετσουα
5n
6chay
8n
ao
aɵ
auri
araq
amuq
akunatapas
amayu
ahua
arqani
achayta
acel
achkanki
adela
alumin
aaron
bh
bha
biya
bras
bona
brist
bele
bulo
cm
clor
culia
dre
drawi
dren
ev
eris
ery
euca
edom
edou
fonta
fdl
gun
gli
glu
hn
h2
ih
ij
ipas
itam
ikin
imin
iris
iba
iquy
impusqa
illawan
jurqa
killay
krist
koni
kiyi
koso
kwintu
kluru
liki
luka
lurasnu
mm
mr
muka
nguy
oh
ola
ove
omir
obra
ovie
otuspa
osqay
pg
ppa
polo
pillan
piyun
qesa
stri
sosa
spam
sloven
tuyu
tsin
tras
tena
trun
uw
uqta
upas
ukuy
utaqa
ukuspa
ullay
upata
uchayuq
uchilla
ukata
uchasqam
uruwi
vu
ville
wea
wyo
xuan
yurin
yano
zulia
zhao
ελ
ιστ
πα
σπ
пе
علا
##ominacion
##lm
##ldi
##ap
##akunata
##ahina
##atro
##agh
##sul
##sos
##ston
##sona
##uwan
##uchu
##uver
##yl
##ypa
##ykun
##iw
##ian
##iun
##imi
##iqta
##itan
##idel
##nmi
##naya
##noso
##dmi
##diq
##myu
##mna
##mukama
##mno
##ello
##evich
##rray
##gris
##gve
##gton
##gye
##cp
##cusa
##cinan
##cesa
##cisaq
##hl
##hri
##hsi
##hayuq
##hanaq
##hville
##hrey
##kp
##pta
##pla
##pya
##pyu
##poq
##plan
##ptana
##wus
##wiqucha
##tka
##tli
##tford
##tment
##qn
##qchu
##qor
##vu
##zilla
##ʼuy
##ʼana
##ffi
##fred
##3k
##bes
##byu
##bluta
##beno
##72
##αλ
##10
##κη
##xqa
##xkunapax
##ław
##ел
##др
##ιδ
##ιος
##οπ
##ים
##ρχ
##ρος
##ρια
##ες
##ερ
##ʌˈ
##არ
##チュ
##anchasqa
##qachiq
##qawaqa
##unyun
##unqanku
##tati
##chena
##aykun
##aypaqmi
##ayoj
##inya
##inda
##inville
##lau
##lali
##laque
##pimi
##pitaqmi
##piela
##pai
##pakuna
##pamba
##pallpa
##pages
##pawanchej
##istu
##isyapi
##ismos
##islao
##kunallam
##uymi
##uykita
##mico
kachaq
kawaq
kaluma
kabul
##mag
##mami
##mali
##mamaq
##make
##matsi
llapay
llave
llallisqa
llapaykichis
llaxta
##titi
##tiri
##tiki
##tili
##tizan
##llla
##lloq
ch3
chana
chol
chiqi
chonta
chloro
##kukuq
##kuptinmi
##kulta
##yacha
##yakhi
##llaqtan
##llaqtin
##llasaq
##llawaya
##llary
##rim
##riru
##richiq
##richina
##rikuyta
##rimaq
##richirqan
##ritos
##manku
##manraq
##uqmi
##isqaspaq
llaqtallay
llaqtayku
llaqtaykipi
wap
wallu
wachwa
wamb
walas
wachanan
wamuti
##uko
##ukristu
##ikta
##rak
##rada
##waw
##waru
##waran
##uss
##usalen
##usqanmanta
##rumas
maha
malo
macas
make
mahara
maquina
##qanan
##qankuta
##qankichu
##kapus
##kamusha
##kaws
##katiguriya
papaq
patam
pauta
papayuq
pampay
anis
antu
anchis
anchasqa
anci
ante
ando
ankunamanta
ango
aniyun
siru
siriy
sillay
siqana
sitaj
simina
simis
siente
nisqakunawan
nisqakunapaq
nisqakunatam
##anawi
##kio
kaychu
kayjina
kayninku
kaymanmi
kaymantaqa
kaypina
kaymanqa
kaykunatawan
kayuwa
runami
runaqta
runatapas
runapaqqa
runallapaqchu
haqi
habla
havre
haikou
hukcha
hukna
hukchaq
hukllana
##sqakuna
simitan
simitawan
simikunaman
simikunatapas
simikunataqa
##nintan
##nintsik
##ninsula
##inae
##inataq
##onqanku
##oney
##hacha
##hatun
suyukunaqa
suyukunam
suyumpi
##illy
##illones
yas
yara
yaki
yapayta
yallisqa
yallispa
##tumi
##turis
##tumarka
suero
##iypi
##iyum
chayma
chaycha
chayka
chaymanmi
chaynas
chayllapis
chayniqpi
mamaman
inn
inmi
inchu
inankupaq
inver
inkuman
infra
kich
kipa
kituka
rid
ripub
rimba
ripunku
ridus
rirqayku
##ulusa
watacha
watasta
watakunapim
quelqa
quchanta
quwik
quwiqucha
##kunqanku
##kunichu
##insa
##chuco
kasar
kasunchis
sall
saqta
sapu
salle
sabina
llamkanqa
pib
pichasqa
pica
pikunam
pirin
pichari
pikullu
##sieu
anqataqa
anqatapas
anqakunaman
anqakunatapas
anqakunataqa
aychu
ayqu
aytun
aysimi
aykusqa
aynu
aypha
aysan
aychayuq
ayrani
aynam
aymaya
ayantin
aypanapaq
pruwyn
##chayka
##chaytam
##chayraykun
niqpiqa
qillqiri
##ester
##ensibi
qillqakunap
qillqakunatam
manakuna
manami
manaka
manakusha
manakuchun
##tine
##tintam
##art
##arca
##aruqi
##erdeen
kaninan
kangur
kanaykichis
kanji
##quen
##osos
##oslav
coo
co2
coll
cori
cocle
comite
collao
##hip
##hiras
asllata
astro
astero
astaka
sutiki
sutiiyuq
sutikunatam
sutiypi
##istru
##istencia
##istory
umall
qhara
qhatun
qhaquy
qhapaqa
watapipas
watapitaqmi
wani
wankaya
wanunanta
##aspan
##aspata
##mayna
##chisuchun
hawas
hawari
tao
taqa
tati
tatam
tamp
tamb
tapasqa
tallin
tags
tagle
tawayoq
unta
unka
##kuyan
naqa
nawar
natura
nakaq
comision
comple
qaqi
qawaq
qawarina
##chira
##chikunapi
##chidur
##chichkanku
##chiwayku
maymantam
maychika
##saki
##sapaq
allmay
allwisqa
demp
depar
degas
decana
pachaka
pachakunapim
pachamamaq
kastillasimi
rikra
rikar
rikunqa
rikunchis
rikunkichis
isq
isqo
##chikel
##chikuni
##yuqta
wika
hinacha
hinallam
kawu
kawllaymi
chap
chakan
chamur
chapar
chajra
champay
champana
##puyninta
##puyninmi
mulan
suyupis
qhichi
hatuncharqan
kaqchu
kaqllan
kaqkunapaq
kaqpata
kaqllatataq
kaqchikel
ruan
rumis
##cil
##cibor
paqariyta
sano
sang
sangu
santon
paykunapi
paykunatapas
paymantaqa
paykunapis
paytiti
runakunapaqmi
##paykuna
##paypas
##payanmi
imasa
imatam
imapaqmi
imakunatachus
##wayna
##tok
##toqa
##tokuna
##toya
##toci
##toba
##touille
aqman
aqmanta
aqtun
aqsa
aqkunapaq
aqkunaman
aqsu
aqkunataq
aqwina
aqninkunam
aqllakuna
##kunapimi
##pupa
##pukuna
##pulla
##ranmi
##ranna
##unanku
##niyman
##niykuta
##niyoqta
##spapas
kamariyta
kamachikunan
llaqtanwan
llaqtanchikpaq
##isio
##isidin
##panqa
nawta
mant
manch
mankata
mantsa
##eles
witu
wichaq
yachasaq
yachaqasqa
yachatsikoq
wikidata
##huaya
urmaq
nilla
niray
niway
nica
nichkan
niptinpas
niptun
niraqta
##nati
##name
##aleo
kulliq
kuchuspa
quchaq
quchaqa
quchakunapipas
##rej
laqta
lapan
larqanku
laphi
laqhay
larupi
labra
larati
lambay
pukanawi
die
dijar
dictionaries
##roc
lila
lion
limay
liza
yachaypaq
yachayway
yachaykunapi
yachaytaqa
yachaykunamanta
yachaykuchu
yachayninkuna
allinisqa
allinllachu
allinchaymanta
mayukunawan
##llanman
##llanpas
##llanchis
##llantaqmi
##kunaqami
amau
amaka
amataj
amawaka
amacuro
rimayman
rimaytaqa
rimaykunataqa
rimaypaqqa
aswanraq
nispalla
tukuypis
mita
mier
miro
miemb
kawsarin
tumba
marina
marga
marce
marqus
marsy
chita
chiman
chiris
chiara
chimal
##usaharu
uyuna
uywu
uykachaq
yurakunapaq
##daceae
##chiychischu
rat
rati
racibor
##capan
##cada
##tegui
##doy
##mpo
##mpin
##mpton
##chanwan
##kuqku
jag
jaru
jack
jamusqa
jatari
jalapa
parth
parrk
parks
rurar
ruraqta
rurarqanku
rurachina
rurasha
waych
wayllu
wayrun
##king
ayllupipas
apin
apka
apolo
april
apure
hayri
haywan
haykuq
haykurqanku
chunchu
chunkayuq
chunkuk
##diff
chanisqa
##cour
##luman
willaj
willakunku
willakurqanku
dioslla
diosmantan
diosninchis
diospaqqa
diosniykita
rimas
rimakun
rimakuykuna
rimasunchik
rimarisunchik
rimapayasqan
##pista
wanusqakunap
wanusqakunatawanpas
##chinanku
##chinayki
yutu
yucatan
yumya
huru
hual
huang
huchanta
##pununa
iskaykuna
munisipyupipas
tiksin
kawsayku
kawsaypacha
kawsayniykimanta
##ankupaqtaq
##raykuqa
rikukuspa
rikukunchu
rikucherqa
rikusunchis
hunuq
hununpi
##chiqri
##chiqpaq
##kichistapas
sunchu
sunkaru
urqupampa
urqukunaman
##chkarqan
##chkarqanku
muskaya
musiyum
remo
reyta
regina
remien
##oqchiq
punki
punto
kutirika
kutimus
kutiyta
##rikapun
##rikapusqa
kawsakuq
puqunanpaq
casi
cachi
calli
cache
cambi
caaza
caetano
cadiz
anapi
anaman
anakunata
anakakuna
wasichaq
wasikunaman
wasikunapipas
wasicharqan
##hinataq
##hinallataq
aruna
arku
arpan
arwi
arbi
arcata
##muco
##muchkan
chinch
chinini
rimanakurqan
rimanakusqa
rimanakurqanku
juchata
judios
jutk
pula
puca
puela
puchkanchik
putusi
##minqa
unchawtaqa
unchawkunapin
##guera
##mbilla
phaka
alis
altos
alejo
alpes
alencas
awka
awha
awchiy
awriq
tarzan
tarisun
tarpunapaq
##hankichis
itita
ikstri
uyata
uyakuna
##risyu
##rishpa
qanpi
qantan
qanchus
qankunalla
qankunamanmi
##llikurqa
mikrun
##chinakuspa
munapa
munakurqa
munakuychis
munakunchu
munakuqqa
ninanmi
antapas
antapaqay
atiku
atipas
atirqanku
suyukunaq
kikiykip
peninsula
ruwachkan
ruwakurqan
ruwakunanpaq
ruwachunku
chunkacha
essen
esquina
##virus
tikuna
tiluchi
tihiras
uklla
ukhina
yupaypi
yupaykunata
yupaykamaqa
intibu
mamallaqtakunapiqa
nomatsi
##oldo
yanarra
yanarahu
yanawanka
yanakusma
##kunanmi
sayayta
saywata
##ptinna
##ptinchikqa
sindica
sinkiyan
##aykipi
##aykichik
##shca
##shtra
##shrahu
kikinku
winni
winchuka
ruranqa
rurrena
##mpiwan
ayak
ayasu
ayamarka
##ded
##deyu
##dega
##dece
##kuspapis
imaykita
mikhusqanku
qusquman
hanaqpi
17chay
takichkan
jesustaqa
##antay
viru
viana
vivi
vilca
##panataq
128
##vaggio
##llayu
##llaypa
##llaychispuni
yuyasqan
yuyasqanta
pulitikus
arichiq
arichispa
arikipa
umalliqpa
##lesqa
##leon
##lemu
##kunapaqjina
aten
atinsi
kunsu
roo
roa
rod
roque
rojo
romani
rooney
uqyan
uqni
uqyasqa
uqyayta
wanuchinqa
sumah
ruraqtiyki
##ejon
##low
##lof
##ykiri
allpamayu
wawallay
wawakunapura
unchayna
unchaykunan
unchayninchis
##gata
##gaceae
muchasqa
mujun
muerte
nisun
nisus
nisusqayki
qhel
qhespi
##qanapaq
##qanakuy
##qanatsu
kuyarqa
kuyasqa
antipi
antiwa
antikunan
tiyarqa
tiyachisqa
tiyashan
tiyashka
##baque
saqes
saqen
##pini
tarikurqan
tarikusqa
tariqpas
astawanpas
astawantaq
astawanraqmi
astawanraj
suyaspa
nawpaqinpi
##chanalla
##chanapas
taytama
taytamanta
taytaykichis
taytamaman
itaya
itapallu
##veli
llanqha
kawsaqkunapa
bada
bamb
baqui
baccha
##cionta
dys
pusaqpas
pusaqkunawan
pusaqnintin
pusaqninkunaqa
pusaqninpas
anchaypa
anchaymantaqa
anchayniykichis
##cepha
chuwi
chumbi
chugoku
##seca
orsay
ortho
ortega
purichiq
purichina
puririrqan
puririnanpaq
##mey
##meco
##zag
rimaykunacha
##thro
uywaman
uywakunaqa
uywatapas
uywachakunata
akn
akllayta
watuk
watukuy
watyaku
##dupar
pawti
utukis
sapalla
sapajaqi
tukuchina
tukukuspa
tukurus
tukukusqa
tukuchispa
tukukunqa
tukukuptin
usqu
rimaqqa
rimaqkunapas
rimaqkunapaq
neh
newar
negra
negre
killam
killap
killachaw
killakunapim
##terqa
##pachak
karqapuni
layata
##rinaqucha
##moor
alimanyayuq
luma
luku
luciano
luxe
luigi
##ceno
##cens
jost
nanchan
##isaj
jinallamantataq
tiyanmi
qiwa
qitara
shawan
shamun
qhawariq
lev
lech
lepi
lema
letras
uraqa
wakinta
wakinpa
228
yuyaykuq
yuyaykurqan
yuyaykusqanta
llapantapas
##bula
##triyu
sev
septi
sekre
llankana
faunapaq
waqyan
siqlla
tiyaykurqanku
##qaqaqaqa
waranqan
waranqu
212
214
219
pikchun
araka
araway
araona
aragua
encu
enqayta
enfer
##patas
carlo
carni
carhua
carrera
##kuchum
qispichisqa
qispichinapaq
pawqarkuna
pawqarwara
pawqarqulla
sallqacha
##niykipas
guja
guantana
##kiypi
sunturkunawan
sunturpim
runakunapura
qillqaymi
qillqayninpi
atini
241
contin
conce
conibo
concienci
condicion
conquista
patayuq
patapitaq
inkisqakunam
creey
mayninpipas
chaskinqaku
moder
mocoa
mount
mozilla
rumiya
##ruspi
##ruspan
pasar
pampachakuyninta
307
##rasyun
kashas
kashasqa
kashasqanta
phusa
phoqchiq
qarin
wallqana
uyanchaku
senna
arhintinaman
arhintinapipas
##aniku
##last
runasimipaq
runasimimanta
289
ukhullapi
bratis
braulio
rimananpaq
##kusqaqa
##kusqata
ninaqa
ninawan
ninakuru
kurt
apal
aparqan
apachina
apamuy
apakuyta
abdul
aberdeen
qatiqpi
qatiqlla
qatiqpiqa
cui
cubi
sinchij
sinchiya
sinchichu
qom
qora
qollu
qoyki
qowasqan
niychu
niykichej
##suchun
##llapami
##chejpis
jefe
kamachiykipas
kamachiynimpi
262
263
siminpas
tawam
purqu
purisqanta
purishan
pukatampu
pukakuru
pukahirka
chayraykuqa
asqakunata
qallariynin
rurasqata
rurasqapas
pancho
pananpi
winachin
winachina
delta
achapaq
achampa
achakunam
achahata
tingo
awqaqkunaqa
awqaqninkuna
##llanapaq
##gios
churintaq
gober
gomorra
hinantinpi
nisqanchik
296
297
##phe
##phus
##phor
##phne
pachanta
ruwayqa
ruwaypi
ruwayman
ruwaypaq
checa
markapim
med
megye
quykurqan
quykunku
kamachikunaqa
amispa
amerqa
kasqayku
kasqaykimanta
##pajchu
yachachiypi
yachachiykunata
chaninchayta
wallatani
hampikunata
llaqtakunapiraykuchus
paykunataj
uchku
wamaninkuna
wamanripa
cortina
minera
pots
poten
potos
poder
pukllaqpas
##musunkichis
papallakta
casas
cashibo
##runi
dae
date
datos
dakar
daphne
junu
junukuy
yawarman
yawarwan
yawarninmanta
##poma
salvan
##istas
allintas
##fir
##ficiencia
munayniy
munayninku
munaysapa
##chispak
yuraqpas
pinqay
pintiku
qayanqati
hunuqa
senorpi
senormanta
senorniyku
apumanta
wasiyoq
paytataq
312
319
316
tanka
##bit
waranqalli
sochi
socie
##anovich
willayqa
willaykunatam
tora
tours
tokio
atasqa
##onatukuna
kitillip
willkasqa
alimanyaman
fransiya
fransya
buff
butros
budd
butunpi
butswana
jatunchan
##chow
##chopis
qharikunaqa
qhariwarmi
hang
hanno
hankapi
hannah
paragua
paraguay
waqaywillka
waqaychas
waqaywill
manchachisqa
manchachikuq
manchakuychu
manchachikuspa
muyum
muyuman
muyurin
chayachi
chayaqi
chayamuspa
chayamunanta
yaykunankupaq
##geykuna
##gerald
maqanakun
maqanakuspalla
ahinatan
juktawan
gaeli
garif
jant
jananta
jankho
qheche
jehovalla
##riota
tantallawan
kayninchis
nawiri
yachanmi
yachanchis
yachananku
yachanchej
yachananchikpaq
kanapaj
iykun
bee
churakuchum
##qeki
hier
high
hirishhanka
hillary
##lloma
rurukunam
rurukunamanta
iniypas
iniykamaqa
##tsay
##tsmouth
rurayninwan
rurayninkunaqa
##aqqa
##aqkuna
noqachu
yaqapascha
##turalidad
##rispataq
canna
cantos
docto
dollar
##koko
##kojtin
wasinchan
wasinpipas
wasinkuman
mariategui
ruwanmanchu
quyllurcha
illtu
planti
kaptinpis
wawsa
wawgeykuna
kaniku
teide
teguci
challwiri
challwanka
paykunaqami
ukuchiq
ukucham
##maqni
chhik
rurasqanpas
rurasqanchikkuna
##voir
sonqokuna
sonqoyku
sonqoykichis
sonqoykita
sonqoykuq
chiqarimay
paykunatan
tiyaqlla
huchakunap
huchachasqachu
huchachanankupaq
kusichiq
kananpaqri
mone
monti
hopi
hobar
house
andy
hamuptin
hamurqani
taripayta
##waqninchik
inuwan
panaka
allah
allawanchu
iwrupamantam
iwrupapitaq
yachachiqkunata
yachachiqkunamanta
umalliqninkuna
##ckland
qaqapi
##gard
##kaqmi
mikhunamanta
##unchikmi
kalindaryukamaqa
qamwan
qampis
rimasqakunam
auca
audio
auckland
ikamanta
ikapunman
phutisqa
bibliaj
##chirqani
akllawan
akllakurqa
aqui
aqumanta
aquita
wayram
saraqa
sarapuru
nunoa
simikunallapi
##payaku
rusaspata
waynata
pustun
karpin
##iyuan
lluqs
##denominacion
wiscon
riohacha
hurani
rikuyniykitaqa
phiru
324
32chay
##faz
shiwi
pakayqasa
inapari
##ukunqa
ashqa
ashanku
ashuya
##nintinpi
llikapiqa
chinkachin
nashville
##phasa
qhipamanqa
kamachikuyqa
kamachikuyninta
rakipi
rakiman
##illuwan
akichisqa
akipurqan
vacante
reykunamanta
reynoso
manukucha
gein
gerald
kamachiqpa
wawanqa
wawanku
wawankunawan
llaktaka
qullqicha
qullqipaq
qullqimanta
aycham
aychallikurqa
##ojna
##meno
illayqa
illaykunam
watiq
watiqasqa
perusuyu
tantanakuyta
pirqaq
pirqakunata
pirqakunapi
kawsanman
kawsanchu
kawsanchis
maqanakuyqa
##winchu
aspip
356
3500
libra
libros
libanu
suyunsi
suyuntin
kamaymi
##purqanmi
portsmouth
##ykuman
##ykumanta
tutap
tutaykiri
runtus
runayuqmi
makillan
makipura
makiykita
kausarin
imaymanakuna
imaymanamanta
watayuqkama
kachkarqanku
pachakwatakama
pachakwatapis
ruwasqay
ruwasqaykita
rinki
rinrin
rinrisapa
landa
lanchipa
lansing
##kurqachu
runaqnin
riqsirqan
riqsipan
riqsikuq
riqsichin
turki
turrikuna
turner
llakichin
llakikurqan
puriymi
puriyninmanta
wamanikuna
isachaq
isabil
murq
iqmi
##stapis
##station
348
alabas
shaya
santup
santuman
irru
irana
serena
yayata
yayallan
##calo
hawanqa
hawanta
askhata
apaykuq
apaykuspa
millq
qaralla
qaraqutu
liwrukunata
willakuykunam
##manuta
##pankum
sunturnintaqa
kunamanta
kunawan
hununakuspa
onqos
llaqtamantan
tawantinsuyuta
qurita
tawnata
438
434
433
459
inichiq
inirqanku
lampara
lamparata
chirima
askata
askachaw
chankap
chankarra
pachamantan
newcastle
makinkupi
chakakuq
tusunku
sasam
sasata
sasachakuynin
supaykuna
parlapawanchej
grabo
pantaspa
pantaleon
kupatam
chuqichinchay
mamanchik
mamanchikpa
mamanchiqri
nunuqkunap
##bane
taytanpa
taytanman
gare
garfield
kuskam
kuskachaq
##sola
##llawantaq
espirituta
espiritual
afana
miraymanta
miraykuy
mirayninta
imananqa
jayp
jaywana
kulis
##mantanan
kurur
kurucha
##ikum
waqachinakunam
hamunqaku
ruranakunata
qawaspa
torno
##cans
##cane
imayayqa
akakurqan
akakurqa
akasyu
pultumarka
juchuy
sapanchasqa
sapankaykichis
awqakuq
awqapata
takinmi
##porta
kawalluni
sirwin
sirwisa
punchawmi
kallpachan
kallpakiywan
##isea
resistencia
##kunapipash
qonchun
qonchuy
465
461
##rawaqachiq
hinataqsi
504
1853
llullakuq
llullakuyta
ajinatam
cristowan
profesion
chukchayuq
chukchidur
churipi
churikim
illimu
nawinkunata
nawinchaspa
nawinchakuq
##ramento
gipper
hisusqa
chaqllisinchipiqa
llumpam
mayqinkunapichus
nunam
warminmanta
445
447
jaroslav
kecua
machul
kawsaykuqkunata
kawsaykuqniyuq
igor
tunupa
aytukunatam
ruranchiq
rurancheq
rurananchikpaq
chaynam
chaynata
mururata
427
upyaq
upyanku
vella
chinaku
eduard
ikrasqakunata
396
shutiq
shumaqta
wakllanwatapaq
qespichina
qespichisqan
susi
susan
susana
raphip
raphicha
raphiman
presion
precisaq
mirachin
iskaynintinmi
sikinpi
##etto
wapsikuna
##onimi
winanankupaq
##kunallapaqchu
sapsipaq
kaqtinchispas
qallariran
qallarirqaku
470
linu
lincha
linderon
ayninrayku
ichh
sipirqanku
##esado
chaymantana
asam
asapa
asakuna
rimasqanku
rimasqanmanta
kawsarichisqan
hamuqtiyki
qhaliyasqa
##tuyuqmi
yachachini
yachachinankupaq
rakhan
rikhuriptin
sunquypi
sunquyku
sunquywan
sonqonkuq
sutichasqataq
yupanqui
kusisqas
llapallanchis
khuchka
palta
palkasu
kamaqmi
kausayman
centa
cenda
paqarinmi
jerusalenmanta
551
germani
geronimi
pradesh
##ystok
waldo
malva
malyakhi
qhepatan
qheswapi
##asapa
wiraquchakunap
410
##kaspi
kamachisqanman
laran
larry
rikchamanqa
qallawamanta
asyapim
rakinqa
rakinku
rakinchik
wayllakunapi
wayllaqucha
wayllaqawaqa
apaykachasqa
harkay
harvard
kisman
napaykuyninta
chaqas
sunqunchik
leonard
greg
greco
hualla
huamb
akllasqam
hampinapaq
riqsinichu
guate
iqtaynin
meneses
puraj
illap
veron
versa
vermont
##warqanchik
paykunamanqa
rawras
rawson
cheqaqmi
cheqaqkaqta
007
qhawariyta
mayqentaq
##mpaqu
##mpaqri
wachuq
masinwan
masinchis
qallarinmi
phaqcham
mikhurqan
mikhuchinchik
036
ampar
baltiku
mariyap
chachapo
suqkunata
qolqellata
##usimi
georg
killer
riyunyun
##ridae
##ridaceae
ashkhata
peni
diablu
yuyarinku
##ynn
##rdino
juchachasqana
juchasapas
kuskanniyuq
nuqanchikpaq
094
clasi
clacs
voca
chiqnin
yachakuqninkunaqa
orqota
orqokunapi
khipuq
##qasqapi
wawayta
wawaykuna
qaritapas
1805
1807
##chenqa
simonta
pukarapi
runtuchana
sinal
sinaqara
magyar
shukti
535
caravaggio
tantasqap
546
puquchinku
qayllarinqaku
uqururu
akuqtintaq
taytakuram
witkhu
ruranapaqqa
ruranapaqpas
derechonkuna
ruqt
siluli
qhawananpaq
qhawanillas
jesucristowan
602
prima
qichwata
leypa
lloqsimuspa
lloqsimusha
ceba
illapapayana
wajkuna
wajcha
qurakuna
ankashpi
canaria
canasta
animalia
wanunay
rikunaykipaq
wayllayta
grant
granma
iqichirqan
casarachiway
susyaldi
wanacha
wanaquta
wanakawri
##yoc
tikakuna
tikakunawan
anakikuna
anakikunam
servirqanku
754
salar
munaspapas
mistikunapaq
iyaw
narcisa
llaqtakunapin
illanchaykuy
shinami
##rpakun
##rparisqa
kajkuna
##sqaykimanta
##ashaqta
muchurqan
muchuchisuchun
644
kukauru
kukachakra
iskuli
ukuchakunam
atuqta
sisata
##wankiman
rimayninkunamanta
kutirikuychis
valledupar
nawahu
##anankama
atiqkunapas
1553
jussieu
rispaqa
##mukrata
##kunankukama
##cheqrayku
hillinmanta
yawarqa
sayayniyuq
fariseokunataq
fariseokunapiwan
achaya
achayninmanta
galisya
thuqa
chilli
kicharin
qhapaqsuyuyki
wilming
judiokunaq
milagros
sasachakuymi
raphinkunata
raphinkunapi
raphintinqa
akiyku
kriyisqa
yaykur
yaykurqa
umallikuna
qhawarimusunki
uchqum
achanpas
##intla
wachakunan
pukllanapaq
chuquw
chuqupi
##paqtaqmi
tupachiq
sapallantataqmi
##gsberg
yarpuran
nakasuchun
willasqamanta
nurwigapi
errol
waqtaspa
kankachu
qhaliyarqapurqan
desensibi
uchacha
panpapi
##ayoqmi
antawakuna
takiynin
nawpaqenta
gisqata
iranpi
##titud
##kacharirqan
saqirqa
tapya
kamachisqayta
kamachisqasninta
rakinalla
rakinakusqa
614
855
##ensk
wawasninku
imperio
imperial
##gnon
alliyniyuq
atiynintaq
731
ininankupaq
ininkichischu
satanasta
kaqninniyuq
kaqnintapas
haywari
haywaspa
uyariqkunataq
uyariqtiy
geogra
geoff
respetay
paryaqaqaqa
wasawasi
luztaka
luzmanka
kashaqtinku
kashaqtinpas
tawqapi
galileapi
galileaman
903
bisiklita
yoga
tuktucha
660
808
llaqhi
llaqllaq
munanakuy
munanakunku
yanapanapaq
ruraytapas
rusyap
suwidsuyupa
emil
rasaq
pagename
sapra
##erner
asuyka
camaguey
arinina
willanampaq
waqllichin
gobier
texkoko
kusisamimpaq
impuy
chuyata
matagalpa
yachasqana
tarukachi
hermano
620
818
wamashrahu
huaylla
wikisimitaqiqa
sikakunan
##mycota
hatarichinapaq
isluwinu
atipaqpa
743
741
895
vinoyoq
pallaspa
takachi
wikiliwrukunapi
bautizarqan
882
883
kaykunatami
qhuyapi
taytaypa
qilqasqan
lorenzi
670
kalaa
colonpa
urqunmi
rikurimun
rikurichunmi
chinkayman
hanaqpachamanta
##eqpi
siracusa
chayananpaqri
yachachiwanchik
ajax
tumpalla
kikiykichis
escuintla
ukhuspi
qhellita
herodesqa
risun
rishan
rishani
liberta
kawsasqanta
##tedral
jatumpaj
autodenominacion
musikuqmi
caballos
atisqanta
licenciakuna
joachim
apasha
wells
##wasunchis
mikuyta
qatiyka
qatiykachasqa
mineral
japʼi
japʼenqanku
gastro
hebreus
tukawaka
huchaykuta
munankichiqchu
gubirn
thunichirqan
840
umayta
sanancham
tuktuntin
##llankupuni
kunanpachapi
1571
sinurta
wasanchay
wasanchaq
irqikuna
agustino
flavi
flamen
quincy
##chisaqmi
kawsanakuq
jawaqa
arguedaspa
qhispikay
kashaspachu
llaktamanta
edit
klaus
suriki
pukllaspa
difteria
capilla
capitulo
ikrayta
yanapaqninkuna
mujuqa
tukusqakuna
936
aqanakun
yachachikuyta
chiqaqchay
1527
1768
chayamunqan
fujian
lukanamarka
makiykunata
makiyoq
yachasqaku
yachasqayki
casablan
870
ismuchispa
kutaspa
kutaisi
yanapasuchun
murunkunamanta
zacatecas
bromelia
diyabluta
zebede
##ραμ
##kunanam
##kunanataq
tapunakurqanku
chakranchikkunapi
huchasapamanta
kausaytapas
federal
qellqapi
egiptoman
mejillones
uritu
llaqtachapi
sarunaykiman
yachaqarqan
yachaqasqan
jesukristu
elec
gordon
khunuqullu
pinsay
truya
kapuchkan
##richinankupaq
askaqchayuq
huqarisqa
1513
sinchʼ
qispichiqnin
afganistan
cheqaqtapuni
terminokunaman
independiente
pakistanpi
yurisqan
##ssel
##llikorqa
pagasqa
niwasqayki
almaykiwan
pampachayki
wasiykita
machupijchu
tusuqkuna
uraykamuq
uraykamunqa
onqosqakunata
onqosqakunatapas
oblast
tisaleo
yegros
yerupaja
##llarqataj
llaqtayoqpas
sigmund
kilumit
1562
1564
kunrisunman
kunrisup
akunankama
demokra
##kankillapa
warmiwanusca
alimanrunawillaway
##ologicos
denis
rishaspa
stanley
infecciones
colectivo
##niyuqtaq
yachatsikur
juzg
juzga
yakumamanta
7000
##mingham
##rishaq
jallpʼata
lenguas
miyuchaspa
uraykuspa
##kikunantin
##kikunannaq
##velino
llajtaman
kirma
kiruyuq
kutispa
llinpi
ratopacha
calakm
1580
yayancheqrayku
tutayaqpi
millmamanta
glad
press
spd
kapirus
##ashayku
manitoba
atipanaku
botepi
segunda
guzmanta
qarqurqanku
qarqoy
minutumanta
qunima
trova
trompe
##jerusalen
padrino
subfamilia
coppola
pununapi
archipiela
qichuyta
shipiwu
pilatoman
caylloma
##ferencia
##ουσ
deportivo
miranchik
novio
partidunpi
partidunpa
shumaqmi
katulika
qhapariy
isqonniyuq
diosniykitan
##risunchikchu
1024
1610
necesi
fitzgerald
plantae
plantago
kansillirninmi
##borough
kajtapis
chʼaw
pacari
simiykunata
intraven
qampam
llusp
1599
1735
faraonqa
carcelpi
tinkunakuy
hampiypa
phutikuy
lloqsispataq
linguistica
qhepamanri
blog
block
flynn
jurdan
yuksa
yukris
##llarqankutaq
##wasqaykita
##usuyupi
anhiltaq
hamunankama
tatayku
llaqtanchiqpi
llaqtanchiqman
llaqtanchiqrayku
llaqtanchiqkunaq
dilbert
allinyachina
amazonia
chaniyoqmi
kikillantataq
vilawan
birmingham
qonqaspa
alexandre
sucedi
##churillay
ayrapin
tamyay
humphrey
phasmirqan
puliwyap
nuestro
taytaykip
phurun
eielson
llaqtancheqpi
reiche
reims
makiyasiy
achiqpi
ichispaqa
prisidin
##snenqa
inquisi
iskuykacharirqan
corredor
hilaria
##bourg
ministrunmi
ampasqataq
ininitaqmi
aachen
qiqlla
qhinchiq
anchuchispa
callawaya
uyarirqani
1621
nishuta
claudia
claudio
ullkuchaytam
laqhayaqpi
atoq
ampanaman
evawan
glenc
huramentota
oseas
swahili
rikukuqpi
seattle
kachamuwaqniy
pruphisyun
curahuara
chʼichi
istuykusunki
rimarinan
1218
khuyana
khuyayta
yuyariychis
thanirqapurqan
aleksan
thunisqam
kusisaminpaq
oficinan
##скии
##aykikamay
kampanas
paqokuna
kamacheqkunamantawan
tucuman
chichira
pukupuku
llankak
rumikunataya
iniyniyoqmi
huwanchataqa
interculturalidad
ofrenda
theodor
mayqenniykichistaq
liwrunkuna
reinonmanta
gringo
irramin
ochukusunchis
operacion
φυσ
##ninchejpi
kiribati
pichilemu
wiksaypi
leningrad
qunquriykukuspa
vallecas
kawsarichimpurqan
primariaman
muksichaqtam
prometesqanta
prometesqanman
chamqaspa
qanawi
yoshi
qumpaya
rumasa
imamaytaykita
mushoq
saqerparirqan
saqerparispa
provenca
damasku
nakʼarin
chayamuqtintaq
sonqoyoj
98052
urpichakunaq
principito
umuykukuspa
bronce
cronica
fonseca
##gyhaza
##ορια
##ογια
pachya
haute
haumea
pachapaqariy
kamachikamun
lauren
causas
petroleo
pantanos
copyright
muyuqmarka
playstation
uhupi
##оси
llamillin
huknintataq
tapichi
maymancha
amazonica
tullpunapaq
alergias
leonidas
convenio
abancay
##oooooooo
ukupasiun
llimphiyuqmi
turkya
turkmin
qespichiqninchis
yachachisqasninman
qilqananchispaq
##konqanku
antunyu
quriwayrachina
pillaru
chinandega
wisnuyuq
aleksandr
cantabria
html
odrekunaman
zorritos
##имир
llakusim
tapurisqa
nahumpa
qallanchay
istatuto
chapariy
lliqti
redmond
petrarca
ukllanay
usyanya
guayaquil
khiska
paraisopi
beauvoir
portugalete
dispositivo
dispositiv
plasachallanpim
sayarisqanmantapas
hussein
academia
democracia
yayanchiqman
yayanchiqrayku
officinale
lliphllikayninta
avenidaqa
wikirikchaqqa
adobe
kwirpuy
melodia
##odz
kapachika
chillkas
papilta
annona
kitarawaqachiq
sajrata
##rekurmi
lavalle
ratatouille
jawch
iklluriy
munashani
ninriyoqqa
novela
mugabe
sexual
carreras
carpintero
dawidpa
atacama
yunqallapi
achuqcha
kharabaq
kawsarimpuy
phuyutarki
witnampi
khuyapayaykuway
marakaypu
unchaukunaq
maximiliano
axllasqa
cebus
guyana
ilex
oxigeno
roqt
##findi
##156
kafiy
chillanes
siyaru
infante
watakunamantana
nilusaharu
rimaykullayki
##dactyla
changsha
willariwanchik
rousse
##bacteria
##metabola
leopold
secoya
biblioteca
chiqaluwa
unanchanampaqri
bastidas
infiernoman
sporting
chengdu
incienso
quwasa
coimbra
wanuyarqan
qatuylla
mickey
waynaruqi
alfeoq
chuzalunku
kaptimpas
ministiryu
andrade
rakiqunayuq
shonqun
zapotillo
thawtiy
lawrence
esperanzas
białystok
aziz
crater
einstein
huriyu
jurinuqa
ocampo
susapaya
umphu
ευαγ
алекс
##φαιρα
llaquiy
wampisa
ancianosqa
sacramento
napole
inkimuqniyuq
albarracin
mujus
tukurakapun
cortazar
socrates
figueroa
chinkarichinaykikamay
qhiparinankuta
personal
jaynirqan
gilardino
gigante
qellqanwan
undelete
achupallas
qaparinkuq
azurduy
vancouver
yuyariwanaykichispaq
yurimawas
electroni
harakmbet
zhengzhou
chiquinquira
barbudawan
criollo
eamon
efeso
google
grenoble
jpg
jinotega
kyoto
olancho
spiritus
##γελιον
anemia
nisqasuykin
sulimana
coahu
copiapo
mayniqpipis
mayneqpipis
urganis
didier
diciembre
marquesado
musqhuy
cameron
cacataibo
llipipipiq
munakuwasqan
protestan
bahamas
kallpaykiwan
abdullah
francais
shushufindi
hermosillo
jilawi
chiqanyachikuq
ketsua
phuyupatamarka
versicul
vergenea
montecristi
[...]
